{
  "version": "1.0",
  "truncation": null,
  "padding": null,
  "added_tokens": [
    {
      "id": 0,
      "content": "[PAD]",
      "single_word": false,
      "lstrip": false,
      "rstrip": false,
      "normalized": false,
      "special": true
    },
    {
      "id": 1,
      "content": "[UNK]",
      "single_word": false,
      "lstrip": false,
      "rstrip": false,
      "normalized": false,
      "special": true
    },
    {
      "id": 2,
      "content": "[CLS]",
      "single_word": false,
      "lstrip": false,
      "rstrip": false,
      "normalized": false,
      "special": true
    },
    {
      "id": 3,
      "content": "[SEP]",
      "single_word": false,
      "lstrip": false,
      "rstrip": false,
      "normalized": false,
      "special": true
    },
    {
      "id": 4,
      "content": "[MASK]",
      "single_word": false,
      "lstrip": false,
      "rstrip": false,
      "normalized": false,
      "special": true
    }
  ],
  "normalizer": {
    "type": "Lowercase"
  },
  "pre_tokenizer": {
    "type": "Whitespace"
  },
  "post_processor": null,
  "decoder": {
    "type": "WordPiece",
    "prefix": "##",
    "cleanup": true
  },
  "model": {
    "type": "WordPiece",
    "unk_token": "[UNK]",
    "continuing_subword_prefix": "##",
    "max_input_chars_per_word": 100,
    "vocab": {
      "[PAD]": 0,
      "[UNK]": 1,
      "[CLS]": 2,
      "[SEP]": 3,
      "[MASK]": 4,
      "\"": 5,
      "'": 6,
      "(": 7,
      ")": 8,
      ",": 9,
      "-": 10,
      ".": 11,
      "/": 12,
      "0": 13,
      "1": 14,
      "2": 15,
      "3": 16,
      "4": 17,
      "5": 18,
      "6": 19,
      "7": 20,
      "8": 21,
      "9": 22,
      ":": 23,
      ">": 24,
      "?": 25,
      "_": 26,
      "`": 27,
      "a": 28,
      "b": 29,
      "c": 30,
      "d": 31,
      "e": 32,
      "f": 33,
      "g": 34,
      "h": 35,
      "i": 36,
      "j": 37,
      "k": 38,
      "l": 39,
      "m": 40,
      "n": 41,
      "o": 42,
      "p": 43,
      "q": 44,
      "r": 45,
      "s": 46,
      "t": 47,
      "u": 48,
      "v": 49,
      "w": 50,
      "x": 51,
      "y": 52,
      "z": 53,
      "##o": 54,
      "##t": 55,
      "##h": 56,
      "##e": 57,
      "##r": 58,
      "##s": 59,
      "##l": 60,
      "##g": 61,
      "##i": 62,
      "##c": 63,
      "##q": 64,
      "##u": 65,
      "##n": 66,
      "##f": 67,
      "##b": 68,
      "##d": 69,
      "##a": 70,
      "##y": 71,
      "##m": 72,
      "##p": 73,
      "##x": 74,
      "##k": 75,
      "##v": 76,
      "##0": 77,
      "##w": 78,
      "##1": 79,
      "##8": 80,
      "##z": 81,
      "##j": 82,
      "##.": 83,
      "##5": 84,
      "##9": 85,
      "##3": 86,
      "##?": 87,
      "##6": 88,
      "##2": 89,
      "##\"": 90,
      "##,": 91,
      "##4": 92,
      "##7": 93,
      "##_": 94,
      "##`": 95,
      "##-": 96,
      "##at": 97,
      "##he": 98,
      "##es": 99,
      "##hat": 100,
      "##er": 101,
      "##in": 102,
      "##re": 103,
      "what": 104,
      "##an": 105,
      "the": 106,
      "##on": 107,
      "##al": 108,
      "an": 109,
      "##ro": 110,
      "##or": 111,
      "in": 112,
      "##ed": 113,
      "of": 114,
      "##ing": 115,
      "##en": 116,
      "to": 117,
      "is": 118,
      "##ar": 119,
      "##ct": 120,
      "are": 121,
      "##ion": 122,
      "##ic": 123,
      "##it": 124,
      "##us": 125,
      "##as": 126,
      "and": 127,
      "##el": 128,
      "##is": 129,
      "##le": 130,
      "##ur": 131,
      "do": 132,
      "##ve": 133,
      "can": 134,
      "for": 135,
      "##ts": 136,
      "##od": 137,
      "##ir": 138,
      "##ol": 139,
      "##il": 140,
      "##os": 141,
      "##om": 142,
      "##un": 143,
      "ca": 144,
      "##im": 145,
      "re": 146,
      "caus": 147,
      "be": 148,
      "##id": 149,
      "pro": 150,
      "##et": 151,
      "##ul": 152,
      "en": 153,
      "li": 154,
      "##gh": 155,
      "##ation": 156,
      "or": 157,
      "pl": 158,
      "##ce": 159,
      "by": 160,
      "##ow": 161,
      "con": 162,
      "##ot": 163,
      "##te": 164,
      "us": 165,
      "ha": 166,
      "##ater": 167,
      "on": 168,
      "whe": 169,
      "##eat": 170,
      "##ent": 171,
      "##ell": 172,
      "that": 173,
      "##ut": 174,
      "st": 175,
      "plan": 176,
      "##ect": 177,
      "##als": 178,
      "ma": 179,
      "##ood": 180,
      "##rom": 181,
      "##du": 182,
      "water": 183,
      "##all": 184,
      "##ver": 185,
      "##th": 186,
      "##ms": 187,
      "anim": 188,
      "##qu": 189,
      "##act": 190,
      "##erg": 191,
      "th": 192,
      "##ght": 193,
      "##mp": 194,
      "ch": 195,
      "##ergy": 196,
      "al": 197,
      "energy": 198,
      "from": 199,
      "when": 200,
      "se": 201,
      "##her": 202,
      "mo": 203,
      "##ain": 204,
      "cell": 205,
      "int": 206,
      "cause": 207,
      "de": 208,
      "##ith": 209,
      "with": 210,
      "sp": 211,
      "does": 212,
      "##um": 213,
      "so": 214,
      "##ive": 215,
      "##gan": 216,
      "have": 217,
      "heat": 218,
      "##ers": 219,
      "ex": 220,
      "##ck": 221,
      "##ds": 222,
      "##op": 223,
      "plants": 224,
      "##ies": 225,
      "as": 226,
      "##ate": 227,
      "animals": 228,
      "##ys": 229,
      "##ess": 230,
      "com": 231,
      "causes": 232,
      "organ": 233,
      "##ge": 234,
      "##ch": 235,
      "##ap": 236,
      "into": 237,
      "##iv": 238,
      "##am": 239,
      "##ens": 240,
      "produ": 241,
      "##ity": 242,
      "used": 243,
      "form": 244,
      "fl": 245,
      "##ter": 246,
      "bod": 247,
      "##ical": 248,
      "##und": 249,
      "##ure": 250,
      "##ans": 251,
      "##lect": 252,
      "food": 253,
      "gro": 254,
      "##ly": 255,
      "##av": 256,
      "ro": 257,
      "co": 258,
      "le": 259,
      "it": 260,
      "##est": 261,
      "##ost": 262,
      "tr": 263,
      "ne": 264,
      "wh": 265,
      "##ib": 266,
      "##ire": 267,
      "##cre": 268,
      "##ke": 269,
      "ob": 270,
      "gen": 271,
      "chan": 272,
      "##ject": 273,
      "body": 274,
      "som": 275,
      "cont": 276,
      "cells": 277,
      "elect": 278,
      "requ": 279,
      "object": 280,
      "ear": 281,
      "light": 282,
      "rep": 283,
      "##ction": 284,
      "##ally": 285,
      "at": 286,
      "electr": 287,
      "earth": 288,
      "all": 289,
      "##arm": 290,
      "##ight": 291,
      "##pp": 292,
      "me": 293,
      "organis": 294,
      "##ad": 295,
      "##oll": 296,
      "##yste": 297,
      "##ces": 298,
      "##ide": 299,
      "##ine": 300,
      "grow": 301,
      "di": 302,
      "their": 303,
      "su": 304,
      "most": 305,
      "##ill": 306,
      "##creas": 307,
      "##ay": 308,
      "ins": 309,
      "##cc": 310,
      "##ind": 311,
      "##ment": 312,
      "car": 313,
      "imp": 314,
      "sur": 315,
      "##bs": 316,
      "##ous": 317,
      "res": 318,
      "##ial": 319,
      "##gen": 320,
      "sun": 321,
      "has": 322,
      "##ass": 323,
      "##ates": 324,
      "##ff": 325,
      "soil": 326,
      "##ary": 327,
      "##ving": 328,
      "##ich": 329,
      "dis": 330,
      "##iz": 331,
      "##ab": 332,
      "##rou": 333,
      "how": 334,
      "he": 335,
      "sh": 336,
      "spe": 337,
      "rock": 338,
      "prote": 339,
      "bl": 340,
      "if": 341,
      "un": 342,
      "##and": 343,
      "##cl": 344,
      "##ort": 345,
      "ph": 346,
      "##art": 347,
      "##yp": 348,
      "##ig": 349,
      "##rodu": 350,
      "which": 351,
      "##ated": 352,
      "##gs": 353,
      "##ros": 354,
      "##orm": 355,
      "reprodu": 356,
      "syste": 357,
      "##ia": 358,
      "##ud": 359,
      "col": 360,
      "##ents": 361,
      "##rough": 362,
      "where": 363,
      "spec": 364,
      "use": 365,
      "some": 366,
      "organisms": 367,
      "comp": 368,
      "air": 369,
      "fo": 370,
      "##ak": 371,
      "through": 372,
      "##rop": 373,
      "##mm": 374,
      "animal": 375,
      "pr": 376,
      "##hem": 377,
      "ad": 378,
      "##ru": 379,
      "plant": 380,
      "##ep": 381,
      "##ri": 382,
      "##urn": 383,
      "sm": 384,
      "##one": 385,
      "chem": 386,
      "man": 387,
      "##reat": 388,
      "hel": 389,
      "##ges": 390,
      "cl": 391,
      "increas": 392,
      "flow": 393,
      "##ccur": 394,
      "ev": 395,
      "##ings": 396,
      "cons": 397,
      "##erat": 398,
      "help": 399,
      "warm": 400,
      "##ires": 401,
      "fe": 402,
      "occur": 403,
      "##acter": 404,
      "conver": 405,
      "##ack": 406,
      "##ant": 407,
      "formed": 408,
      "surv": 409,
      "##ors": 410,
      "system": 411,
      "typ": 412,
      "##eather": 413,
      "pre": 414,
      "rain": 415,
      "te": 416,
      "##na": 417,
      "trans": 418,
      "change": 419,
      "##ons": 420,
      "##osit": 421,
      "##ong": 422,
      "electric": 423,
      "poll": 424,
      "##ert": 425,
      "##hing": 426,
      "bec": 427,
      "require": 428,
      "##vel": 429,
      "##erm": 430,
      "##ract": 431,
      "move": 432,
      "hum": 433,
      "##ther": 434,
      "##wn": 435,
      "gl": 436,
      "gas": 437,
      "##xy": 438,
      "##ution": 439,
      "##ves": 440,
      "inf": 441,
      "##cul": 442,
      "##ist": 443,
      "produce": 444,
      "##so": 445,
      "##ations": 446,
      "requires": 447,
      "##ins": 448,
      "chemical": 449,
      "##omes": 450,
      "many": 451,
      "##ating": 452,
      "impact": 453,
      "sw": 454,
      "weather": 455,
      "##light": 456,
      "##ted": 457,
      "##ace": 458,
      "species": 459,
      "##ually": 460,
      "sol": 461,
      "happ": 462,
      "tre": 463,
      "##age": 464,
      "other": 465,
      "##vir": 466,
      "##uc": 467,
      "##de": 468,
      "##ust": 469,
      "bacter": 470,
      "##ions": 471,
      "envir": 472,
      "##xygen": 473,
      "environ": 474,
      "produc": 475,
      "temp": 476,
      "ab": 477,
      "fun": 478,
      "comm": 479,
      "##apor": 480,
      "ac": 481,
      "call": 482,
      "eg": 483,
      "lo": 484,
      "rel": 485,
      "##eas": 486,
      "##etic": 487,
      "##able": 488,
      "temperat": 489,
      "called": 490,
      "oxygen": 491,
      "##iver": 492,
      "bi": 493,
      "part": 494,
      "blood": 495,
      "##ose": 496,
      "one": 497,
      "make": 498,
      "##fe": 499,
      "##les": 500,
      "living": 501,
      "##ains": 502,
      "##cess": 503,
      "made": 504,
      "##quid": 505,
      "also": 506,
      "bacteria": 507,
      "##ren": 508,
      "rocks": 509,
      "found": 510,
      "##og": 511,
      "ke": 512,
      "pe": 513,
      "liquid": 514,
      "ver": 515,
      "##ult": 516,
      "##ip": 517,
      "they": 518,
      "##ones": 519,
      "##ast": 520,
      "##ely": 521,
      "vir": 522,
      "more": 523,
      "occurs": 524,
      "gr": 525,
      "over": 526,
      "div": 527,
      "##hes": 528,
      "ref": 529,
      "type": 530,
      "environment": 531,
      "##ild": 532,
      "up": 533,
      "gener": 534,
      "resp": 535,
      "##amp": 536,
      "##oss": 537,
      "##ome": 538,
      "sk": 539,
      "##br": 540,
      "caused": 541,
      "life": 542,
      "met": 543,
      "##ople": 544,
      "somet": 545,
      "people": 546,
      "virus": 547,
      "lar": 548,
      "wind": 549,
      "##oun": 550,
      "##ands": 551,
      "##ory": 552,
      "##aves": 553,
      "##rosion": 554,
      "##here": 555,
      "##ime": 556,
      "erosion": 557,
      "##ore": 558,
      "##hy": 559,
      "##ower": 560,
      "sunlight": 561,
      "down": 562,
      "canc": 563,
      "need": 564,
      "not": 565,
      "will": 566,
      "live": 567,
      "dep": 568,
      "##ll": 569,
      "##ects": 570,
      "mamm": 571,
      "electricity": 572,
      "##ok": 573,
      "##ue": 574,
      "beh": 575,
      "burn": 576,
      "##ou": 577,
      "##out": 578,
      "##ance": 579,
      "##ids": 580,
      "seas": 581,
      "exp": 582,
      "changes": 583,
      "mic": 584,
      "##ures": 585,
      "abs": 586,
      "cre": 587,
      "nat": 588,
      "##uring": 589,
      "##ting": 590,
      "##ten": 591,
      "##if": 592,
      "##ale": 593,
      "##ides": 594,
      "happens": 595,
      "long": 596,
      "##up": 597,
      "##ach": 598,
      "##ars": 599,
      "##ish": 600,
      "##iss": 601,
      "##other": 602,
      "growth": 603,
      "keep": 604,
      "am": 605,
      "##bit": 606,
      "##osp": 607,
      "carb": 608,
      "may": 609,
      "dna": 610,
      "po": 611,
      "sal": 612,
      "then": 613,
      "##ick": 614,
      "reproduction": 615,
      "cy": 616,
      "mus": 617,
      "things": 618,
      "absor": 619,
      "harm": 620,
      "examp": 621,
      "cold": 622,
      "temperature": 623,
      "bir": 624,
      "breat": 625,
      "time": 626,
      "##ag": 627,
      "electrical": 628,
      "mammals": 629,
      "br": 630,
      "off": 631,
      "meas": 632,
      "ar": 633,
      "sens": 634,
      "##its": 635,
      "trees": 636,
      "skin": 637,
      "cancer": 638,
      "##ural": 639,
      "##clud": 640,
      "wor": 641,
      "act": 642,
      "no": 643,
      "includ": 644,
      "fre": 645,
      "usually": 646,
      "objects": 647,
      "##atter": 648,
      "cond": 649,
      "than": 650,
      "seed": 651,
      "viruses": 652,
      "protect": 653,
      "bu": 654,
      "fire": 655,
      "##otes": 656,
      "genetic": 657,
      "increases": 658,
      "cr": 659,
      "dr": 660,
      "horm": 661,
      "red": 662,
      "diff": 663,
      "transp": 664,
      "something": 665,
      "mass": 666,
      "##ily": 667,
      "small": 668,
      "carbon": 669,
      "##ual": 670,
      "like": 671,
      "survive": 672,
      "gre": 673,
      "posit": 674,
      "##ob": 675,
      "##kary": 676,
      "att": 677,
      "heal": 678,
      "proteins": 679,
      "during": 680,
      "per": 681,
      "##igh": 682,
      "##ac": 683,
      "surviv": 684,
      "bre": 685,
      "det": 686,
      "mater": 687,
      "nut": 688,
      "##ring": 689,
      "##ays": 690,
      "ag": 691,
      "dam": 692,
      "##pt": 693,
      "mole": 694,
      "##akes": 695,
      "##ruct": 696,
      "##velop": 697,
      "river": 698,
      "##iliz": 699,
      "habit": 700,
      "cool": 701,
      "get": 702,
      "sed": 703,
      "##int": 704,
      "##use": 705,
      "##ulation": 706,
      "bul": 707,
      "ey": 708,
      "mut": 709,
      "##ative": 710,
      "##olution": 711,
      "humans": 712,
      "very": 713,
      "natural": 714,
      "differ": 715,
      "habitat": 716,
      "sedim": 717,
      "cor": 718,
      "fr": 719,
      "##ger": 720,
      "##cle": 721,
      "##der": 722,
      "##orms": 723,
      "process": 724,
      "sl": 725,
      "##ark": 726,
      "prov": 727,
      "ext": 728,
      "##avi": 729,
      "##cles": 730,
      "green": 731,
      "pop": 732,
      "vapor": 733,
      "##ber": 734,
      "##tebr": 735,
      "decreas": 736,
      "level": 737,
      "organism": 738,
      "cir": 739,
      "fert": 740,
      "she": 741,
      "##st": 742,
      "##karyotes": 743,
      "nutri": 744,
      "gam": 745,
      "imm": 746,
      "##ave": 747,
      "another": 748,
      "##ision": 749,
      "##olog": 750,
      "##ility": 751,
      "store": 752,
      "sour": 753,
      "##ffect": 754,
      "press": 755,
      "kind": 756,
      "oce": 757,
      "##lo": 758,
      "ant": 759,
      "##round": 760,
      "example": 761,
      "ec": 762,
      "fu": 763,
      "##ful": 764,
      "struct": 765,
      "fur": 766,
      "lack": 767,
      "out": 768,
      "##ines": 769,
      "often": 770,
      "prop": 771,
      "develop": 772,
      "import": 773,
      "survival": 774,
      "fuel": 775,
      "##uch": 776,
      "##yn": 777,
      "comple": 778,
      "common": 779,
      "measure": 780,
      "##end": 781,
      "dec": 782,
      "neg": 783,
      "convert": 784,
      "become": 785,
      "##ease": 786,
      "transport": 787,
      "important": 788,
      "##ard": 789,
      "##ods": 790,
      "insects": 791,
      "adap": 792,
      "birds": 793,
      "health": 794,
      "fertiliz": 795,
      "pressure": 796,
      "lun": 797,
      "tiss": 798,
      "##erv": 799,
      "sex": 800,
      "leaves": 801,
      "phot": 802,
      "egg": 803,
      "amoun": 804,
      "salt": 805,
      "fish": 806,
      "high": 807,
      "its": 808,
      "ste": 809,
      "being": 810,
      "contro": 811,
      "contain": 812,
      "subs": 813,
      "reproduce": 814,
      "helps": 815,
      "condens": 816,
      "gamet": 817,
      "immun": 818,
      "hot": 819,
      "win": 820,
      "##ef": 821,
      "##ause": 822,
      "##ond": 823,
      "##ise": 824,
      "force": 825,
      "end": 826,
      "pollin": 827,
      "##cules": 828,
      "fung": 829,
      "behavi": 830,
      "free": 831,
      "positive": 832,
      "ecos": 833,
      "##our": 834,
      "##ress": 835,
      "##sp": 836,
      "##ile": 837,
      "##ness": 838,
      "only": 839,
      "##chan": 840,
      "human": 841,
      "infect": 842,
      "produced": 843,
      "absorb": 844,
      "different": 845,
      "ecosyste": 846,
      "tw": 847,
      "##ci": 848,
      "sperm": 849,
      "molecules": 850,
      "source": 851,
      "each": 852,
      "fall": 853,
      "power": 854,
      "we": 855,
      "was": 856,
      "##ox": 857,
      "##get": 858,
      "##osomes": 859,
      "rem": 860,
      "##ular": 861,
      "##ows": 862,
      "flood": 863,
      "surf": 864,
      "division": 865,
      "bas": 866,
      "##tes": 867,
      "##ism": 868,
      "##ists": 869,
      "such": 870,
      "##ize": 871,
      "eggs": 872,
      "break": 873,
      "negative": 874,
      "subst": 875,
      "##oc": 876,
      "##gest": 877,
      "too": 878,
      "##oth": 879,
      "mak": 880,
      "inside": 881,
      "increase": 882,
      "build": 883,
      "wood": 884,
      "##atory": 885,
      "##icles": 886,
      "chrom": 887,
      "acid": 888,
      "sediment": 889,
      "##ks": 890,
      "##ite": 891,
      "##old": 892,
      "##ull": 893,
      "organs": 894,
      "produces": 895,
      "coal": 896,
      "function": 897,
      "commun": 898,
      "grav": 899,
      "micro": 900,
      "foss": 901,
      "##ved": 902,
      "##ites": 903,
      "##ape": 904,
      "flowers": 905,
      "converts": 906,
      "sweat": 907,
      "loc": 908,
      "##rent": 909,
      "respir": 910,
      "##oking": 911,
      "season": 912,
      "sense": 913,
      "two": 914,
      "##ets": 915,
      "##gn": 916,
      "##ues": 917,
      "##ores": 918,
      "##eng": 919,
      "genes": 920,
      "##adi": 921,
      "evapor": 922,
      "attract": 923,
      "##ynt": 924,
      "fossil": 925,
      "bo": 926,
      "eat": 927,
      "##vent": 928,
      "heating": 929,
      "##ucle": 930,
      "##tebrates": 931,
      "ice": 932,
      "til": 933,
      "##ments": 934,
      "##mosp": 935,
      "reg": 936,
      "##uld": 937,
      "uses": 938,
      "moving": 939,
      "sound": 940,
      "atmosp": 941,
      "mechan": 942,
      "dist": 943,
      "fem": 944,
      "transf": 945,
      "hormones": 946,
      "nutrients": 947,
      "##ove": 948,
      "##ots": 949,
      "##ied": 950,
      "##ae": 951,
      "##ake": 952,
      "##worms": 953,
      "react": 954,
      "##ibr": 955,
      "movement": 956,
      "control": 957,
      "surface": 958,
      "pass": 959,
      "##rine": 960,
      "##ma": 961,
      "##ances": 962,
      "##itation": 963,
      "##osynt": 964,
      "without": 965,
      "material": 966,
      "freez": 967,
      "em": 968,
      "mar": 969,
      "hair": 970,
      "##ential": 971,
      "inter": 972,
      "means": 973,
      "evolution": 974,
      "because": 975,
      "deposit": 976,
      "offsp": 977,
      "include": 978,
      "offspring": 979,
      "##se": 980,
      "##ub": 981,
      "inv": 982,
      "##quat": 983,
      "char": 984,
      "see": 985,
      "tra": 986,
      "##ible": 987,
      "ocean": 988,
      "fungi": 989,
      "vibr": 990,
      "weathering": 991,
      "cur": 992,
      "day": 993,
      "kill": 994,
      "##uit": 995,
      "##now": 996,
      "there": 997,
      "##arn": 998,
      "rec": 999,
      "##ame": 1000,
      "pollution": 1001,
      "burning": 1002,
      "photosynt": 1003,
      "bur": 1004,
      "foll": 1005,
      "pull": 1006,
      "turn": 1007,
      "you": 1008,
      "##rogen": 1009,
      "ind": 1010,
      "using": 1011,
      "##roph": 1012,
      "##oxide": 1013,
      "around": 1014,
      "but": 1015,
      "des": 1016,
      "##rem": 1017,
      "ground": 1018,
      "supp": 1019,
      "af": 1020,
      "fat": 1021,
      "hy": 1022,
      "##ry": 1023,
      "##dr": 1024,
      "forms": 1025,
      "##oles": 1026,
      "rece": 1027,
      "##owing": 1028,
      "condu": 1029,
      "prim": 1030,
      "winter": 1031,
      "atmosphere": 1032,
      "es": 1033,
      "sc": 1034,
      "##gar": 1035,
      "##ators": 1036,
      "population": 1037,
      "dest": 1038,
      "find": 1039,
      "##are": 1040,
      "##mph": 1041,
      "learn": 1042,
      "insul": 1043,
      "##ized": 1044,
      "##hesis": 1045,
      "good": 1046,
      "par": 1047,
      "##ear": 1048,
      "##rib": 1049,
      "##ym": 1050,
      "##anes": 1051,
      "planet": 1052,
      "organic": 1053,
      "contains": 1054,
      "disease": 1055,
      "particles": 1056,
      "large": 1057,
      "app": 1058,
      "less": 1059,
      "male": 1060,
      "qu": 1061,
      "var": 1062,
      "##hed": 1063,
      "##ink": 1064,
      "##osed": 1065,
      "protein": 1066,
      "complex": 1067,
      "after": 1068,
      "ever": 1069,
      "land": 1070,
      "rot": 1071,
      "sim": 1072,
      "##erms": 1073,
      "place": 1074,
      "group": 1075,
      "roots": 1076,
      "new": 1077,
      "result": 1078,
      "clim": 1079,
      "amount": 1080,
      "ess": 1081,
      "much": 1082,
      "sand": 1083,
      "##ph": 1084,
      "##organ": 1085,
      "##ence": 1086,
      "##icate": 1087,
      "add": 1088,
      "create": 1089,
      "damage": 1090,
      "female": 1091,
      "photosynthesis": 1092,
      "nucle": 1093,
      "size": 1094,
      "##cop": 1095,
      "##ail": 1096,
      "##erve": 1097,
      "##ults": 1098,
      "bodies": 1099,
      "lead": 1100,
      "systems": 1101,
      "prec": 1102,
      "producers": 1103,
      "seasons": 1104,
      "seeds": 1105,
      "marine": 1106,
      "eu": 1107,
      "matter": 1108,
      "our": 1109,
      "##ging": 1110,
      "##isms": 1111,
      "sec": 1112,
      "comb": 1113,
      "##ign": 1114,
      "special": 1115,
      "solid": 1116,
      "eyes": 1117,
      "fertilization": 1118,
      "lungs": 1119,
      "makes": 1120,
      "every": 1121,
      "radi": 1122,
      "ve": 1123,
      "##jor": 1124,
      "##idu": 1125,
      "eng": 1126,
      "##avel": 1127,
      "##ills": 1128,
      "##ross": 1129,
      "flower": 1130,
      "consum": 1131,
      "micros": 1132,
      "mutations": 1133,
      "coral": 1134,
      "provide": 1135,
      "chromosomes": 1136,
      "transfer": 1137,
      "fro": 1138,
      "ir": 1139,
      "lim": 1140,
      "##ards": 1141,
      "##ics": 1142,
      "##itt": 1143,
      "##ition": 1144,
      "##osis": 1145,
      "major": 1146,
      "mem": 1147,
      "die": 1148,
      "dioxide": 1149,
      "hem": 1150,
      "feed": 1151,
      "cycle": 1152,
      "conduct": 1153,
      "mot": 1154,
      "nerv": 1155,
      "##ould": 1156,
      "##oline": 1157,
      "stud": 1158,
      "contract": 1159,
      "gasoline": 1160,
      "solar": 1161,
      "breathe": 1162,
      "behavior": 1163,
      "second": 1164,
      "microscop": 1165,
      "nervous": 1166,
      "mel": 1167,
      "run": 1168,
      "##ev": 1169,
      "##ams": 1170,
      "tow": 1171,
      "bet": 1172,
      "star": 1173,
      "def": 1174,
      "product": 1175,
      "##ouse": 1176,
      "smo": 1177,
      "point": 1178,
      "muscles": 1179,
      "work": 1180,
      "peri": 1181,
      "invol": 1182,
      "essential": 1183,
      "way": 1184,
      "##sity": 1185,
      "##co": 1186,
      "##mal": 1187,
      "##row": 1188,
      "##etr": 1189,
      "str": 1190,
      "earthqu": 1191,
      "reflect": 1192,
      "bulb": 1193,
      "extrem": 1194,
      "greenh": 1195,
      "gravity": 1196,
      "##ength": 1197,
      "current": 1198,
      "dire": 1199,
      "ech": 1200,
      "effect": 1201,
      "mer": 1202,
      "vol": 1203,
      "waves": 1204,
      "##ax": 1205,
      "##ats": 1206,
      "##ically": 1207,
      "##oms": 1208,
      "reef": 1209,
      "prokaryotes": 1210,
      "diss": 1211,
      "generally": 1212,
      "respons": 1213,
      "breathing": 1214,
      "circul": 1215,
      "following": 1216,
      "hyd": 1217,
      "ax": 1218,
      "aut": 1219,
      "back": 1220,
      "fri": 1221,
      "##ld": 1222,
      "##las": 1223,
      "toget": 1224,
      "##unt": 1225,
      "flu": 1226,
      "sugar": 1227,
      "prevent": 1228,
      "infl": 1229,
      "##hydr": 1230,
      "redu": 1231,
      "rivers": 1232,
      "decreases": 1233,
      "tissues": 1234,
      "immune": 1235,
      "mechanical": 1236,
      "climate": 1237,
      "together": 1238,
      "acc": 1239,
      "creat": 1240,
      "due": 1241,
      "eas": 1242,
      "ter": 1243,
      "##gae": 1244,
      "inver": 1245,
      "##isp": 1246,
      "start": 1247,
      "algae": 1248,
      "##ives": 1249,
      "required": 1250,
      "happen": 1251,
      "temperatures": 1252,
      "harmful": 1253,
      "detect": 1254,
      "eukaryotes": 1255,
      "affect": 1256,
      "cut": 1257,
      "ill": 1258,
      "know": 1259,
      "lay": 1260,
      "num": 1261,
      "##mer": 1262,
      "##way": 1263,
      "inc": 1264,
      "##ited": 1265,
      "##irst": 1266,
      "##omp": 1267,
      "##imes": 1268,
      "bees": 1269,
      "##ote": 1270,
      "stim": 1271,
      "travel": 1272,
      "heart": 1273,
      "phy": 1274,
      "gluc": 1275,
      "ability": 1276,
      "activ": 1277,
      "slow": 1278,
      "sexual": 1279,
      "building": 1280,
      "hemisp": 1281,
      "greenhouse": 1282,
      "dissol": 1283,
      "av": 1284,
      "aquat": 1285,
      "both": 1286,
      "fib": 1287,
      "pers": 1288,
      "##ium": 1289,
      "##esh": 1290,
      "##ern": 1291,
      "area": 1292,
      "##ider": 1293,
      "stre": 1294,
      "thing": 1295,
      "sea": 1296,
      "moon": 1297,
      "under": 1298,
      "inform": 1299,
      "##ouds": 1300,
      "##ific": 1301,
      "determ": 1302,
      "circ": 1303,
      "antib": 1304,
      "gametes": 1305,
      "axis": 1306,
      "friction": 1307,
      "influ": 1308,
      "glucose": 1309,
      "hemisphere": 1310,
      "aquatic": 1311,
      "mon": 1312,
      "nit": 1313,
      "sum": 1314,
      "same": 1315,
      "would": 1316,
      "##ton": 1317,
      "##ters": 1318,
      "##ex": 1319,
      "##plo": 1320,
      "##eath": 1321,
      "chlo": 1322,
      "##ophy": 1323,
      "clouds": 1324,
      "bulbs": 1325,
      "eye": 1326,
      "substances": 1327,
      "character": 1328,
      "vari": 1329,
      "terr": 1330,
      "##ploid": 1331,
      "bal": 1332,
      "pus": 1333,
      "urine": 1334,
      "well": 1335,
      "##ric": 1336,
      "##ne": 1337,
      "##air": 1338,
      "##ads": 1339,
      "ther": 1340,
      "##ities": 1341,
      "state": 1342,
      "alter": 1343,
      "comes": 1344,
      "why": 1345,
      "acids": 1346,
      "fresh": 1347,
      "adapted": 1348,
      "ecosystems": 1349,
      "communicate": 1350,
      "tilted": 1351,
      "freezing": 1352,
      "indiv": 1353,
      "chlorop": 1354,
      "length": 1355,
      "pat": 1356,
      "##ock": 1357,
      "##til": 1358,
      "##een": 1359,
      "##ced": 1360,
      "##pl": 1361,
      "##ween": 1362,
      "##erc": 1363,
      "##ctive": 1364,
      "##ash": 1365,
      "##els": 1366,
      "cact": 1367,
      "moves": 1368,
      "##amin": 1369,
      "color": 1370,
      "##cular": 1371,
      "biomes": 1372,
      "adapt": 1373,
      "ecosystem": 1374,
      "falls": 1375,
      "##rophic": 1376,
      "precip": 1377,
      "between": 1378,
      "stimul": 1379,
      "el": 1380,
      "hur": 1381,
      "litt": 1382,
      "pol": 1383,
      "pain": 1384,
      "wall": 1385,
      "##ord": 1386,
      "stars": 1387,
      "exerc": 1388,
      "cover": 1389,
      "shape": 1390,
      "smell": 1391,
      "converted": 1392,
      "metal": 1393,
      "pois": 1394,
      "muscle": 1395,
      "structures": 1396,
      "known": 1397,
      "antibod": 1398,
      "nitrogen": 1399,
      "summer": 1400,
      "precipitation": 1401,
      "drou": 1402,
      "go": 1403,
      "min": 1404,
      "mit": 1405,
      "non": 1406,
      "pan": 1407,
      "##gress": 1408,
      "##not": 1409,
      "##ble": 1410,
      "##acc": 1411,
      "##per": 1412,
      "##water": 1413,
      "them": 1414,
      "##iste": 1415,
      "spores": 1416,
      "come": 1417,
      "earthworms": 1418,
      "inst": 1419,
      "resour": 1420,
      "compet": 1421,
      "##ruction": 1422,
      "types": 1423,
      "refract": 1424,
      "generate": 1425,
      "world": 1426,
      "shel": 1427,
      "tissue": 1428,
      "microorgan": 1429,
      "evaporation": 1430,
      "primary": 1431,
      "study": 1432,
      "meriste": 1433,
      "information": 1434,
      "drought": 1435,
      "amph": 1436,
      "away": 1437,
      "cent": 1438,
      "death": 1439,
      "night": 1440,
      "phe": 1441,
      "pot": 1442,
      "pap": 1443,
      "##ix": 1444,
      "##kely": 1445,
      "##onds": 1446,
      "any": 1447,
      "##icals": 1448,
      "##ascular": 1449,
      "seen": 1450,
      "dead": 1451,
      "excre": 1452,
      "contin": 1453,
      "cars": 1454,
      "##ffects": 1455,
      "reproductive": 1456,
      "pres": 1457,
      "glob": 1458,
      "tree": 1459,
      "behave": 1460,
      "dry": 1461,
      "decomp": 1462,
      "respiratory": 1463,
      "boil": 1464,
      "destro": 1465,
      "earthquakes": 1466,
      "direct": 1467,
      "reefs": 1468,
      "characterist": 1469,
      "little": 1470,
      "amphib": 1471,
      "global": 1472,
      "dens": 1473,
      "ge": 1474,
      "moll": 1475,
      "mult": 1476,
      "sing": 1477,
      "vascular": 1478,
      "##ral": 1479,
      "##ute": 1480,
      "##ning": 1481,
      "##yro": 1482,
      "##ales": 1483,
      "play": 1484,
      "magn": 1485,
      "secre": 1486,
      "heated": 1487,
      "asex": 1488,
      "##ively": 1489,
      "gene": 1490,
      "changing": 1491,
      "digest": 1492,
      "phas": 1493,
      "##ropods": 1494,
      "class": 1495,
      "swim": 1496,
      "releas": 1497,
      "biod": 1498,
      "vertebrates": 1499,
      "needs": 1500,
      "brain": 1501,
      "reduc": 1502,
      "stored": 1503,
      "infection": 1504,
      "frogs": 1505,
      "invertebrates": 1506,
      "number": 1507,
      "thermal": 1508,
      "poison": 1509,
      "microorganisms": 1510,
      "amphibi": 1511,
      "mollus": 1512,
      "cop": 1513,
      "gets": 1514,
      "kin": 1515,
      "low": 1516,
      "ov": 1517,
      "rate": 1518,
      "##ie": 1519,
      "##cent": 1520,
      "##ages": 1521,
      "##kton": 1522,
      "##ined": 1523,
      "cannot": 1524,
      "beg": 1525,
      "likely": 1526,
      "main": 1527,
      "within": 1528,
      "foods": 1529,
      "cooking": 1530,
      "becomes": 1531,
      "glass": 1532,
      "cycles": 1533,
      "smaller": 1534,
      "pollination": 1535,
      "respiration": 1536,
      "rotating": 1537,
      "motion": 1538,
      "circuit": 1539,
      "single": 1540,
      "bro": 1541,
      "eth": 1542,
      "fan": 1543,
      "lower": 1544,
      "pa": 1545,
      "rest": 1546,
      "##ears": 1547,
      "##ials": 1548,
      "##ycl": 1549,
      "##par": 1550,
      "inher": 1551,
      "##elet": 1552,
      "##let": 1553,
      "deep": 1554,
      "leave": 1555,
      "near": 1556,
      "speed": 1557,
      "units": 1558,
      "chemicals": 1559,
      "pred": 1560,
      "larger": 1561,
      "needed": 1562,
      "arth": 1563,
      "aggress": 1564,
      "decrease": 1565,
      "structure": 1566,
      "fossils": 1567,
      "traits": 1568,
      "paras": 1569,
      "towards": 1570,
      "circulatory": 1571,
      "influen": 1572,
      "##ophytes": 1573,
      "antibodies": 1574,
      "age": 1575,
      "big": 1576,
      "batter": 1577,
      "cle": 1578,
      "dark": 1579,
      "loss": 1580,
      "rib": 1581,
      "side": 1582,
      "trophic": 1583,
      "wet": 1584,
      "wild": 1585,
      "##ont": 1586,
      "##asma": 1587,
      "causing": 1588,
      "plasma": 1589,
      "dev": 1590,
      "organell": 1591,
      "cour": 1592,
      "##estone": 1593,
      "heav": 1594,
      "black": 1595,
      "phys": 1596,
      "rainb": 1597,
      "about": 1598,
      "above": 1599,
      "divide": 1600,
      "hormone": 1601,
      "proper": 1602,
      "substance": 1603,
      "echin": 1604,
      "path": 1605,
      "exercise": 1606,
      "resources": 1607,
      "amphibians": 1608,
      "ele": 1609,
      "zy": 1610,
      "##cial": 1611,
      "##aces": 1612,
      "##ants": 1613,
      "##ange": 1614,
      "touch": 1615,
      "doing": 1616,
      "dogs": 1617,
      "##ellular": 1618,
      "waters": 1619,
      "thyro": 1620,
      "separ": 1621,
      "results": 1622,
      "sometimes": 1623,
      "materials": 1624,
      "behaviors": 1625,
      "located": 1626,
      "combust": 1627,
      "##iduals": 1628,
      "limestone": 1629,
      "illness": 1630,
      "individuals": 1631,
      "walls": 1632,
      "mitosis": 1633,
      "paper": 1634,
      "biodiver": 1635,
      "organelles": 1636,
      "zyg": 1637,
      "aer": 1638,
      "fin": 1639,
      "lands": 1640,
      "vis": 1641,
      "##ious": 1642,
      "##bers": 1643,
      "thems": 1644,
      "##elves": 1645,
      "##eter": 1646,
      "##ulations": 1647,
      "maint": 1648,
      "sever": 1649,
      "moist": 1650,
      "mount": 1651,
      "repl": 1652,
      "insect": 1653,
      "carry": 1654,
      "##abol": 1655,
      "colon": 1656,
      "creates": 1657,
      "created": 1658,
      "longer": 1659,
      "mutation": 1660,
      "lung": 1661,
      "basic": 1662,
      "regul": 1663,
      "recycl": 1664,
      "quick": 1665,
      "consumers": 1666,
      "melting": 1667,
      "response": 1668,
      "heavy": 1669,
      "biodiversity": 1670,
      "themselves": 1671,
      "maintain": 1672,
      "fru": 1673,
      "first": 1674,
      "hig": 1675,
      "just": 1676,
      "years": 1677,
      "##ged": 1678,
      "##ns": 1679,
      "##nal": 1680,
      "##aw": 1681,
      "##iny": 1682,
      "##red": 1683,
      "##ene": 1684,
      "##ening": 1685,
      "##olds": 1686,
      "##unds": 1687,
      "plat": 1688,
      "child": 1689,
      "social": 1690,
      "##iving": 1691,
      "root": 1692,
      "flows": 1693,
      "consider": 1694,
      "warmth": 1695,
      "populations": 1696,
      "##ologists": 1697,
      "pollinators": 1698,
      "floods": 1699,
      "appear": 1700,
      "secondary": 1701,
      "miner": 1702,
      "pherom": 1703,
      "boiling": 1704,
      "thyroid": 1705,
      "great": 1706,
      "host": 1707,
      "ign": 1708,
      "might": 1709,
      "oil": 1710,
      "sle": 1711,
      "##tr": 1712,
      "##ty": 1713,
      "##cy": 1714,
      "##bacc": 1715,
      "##anger": 1716,
      "##ror": 1717,
      "tobacc": 1718,
      "##ode": 1719,
      "chain": 1720,
      "flash": 1721,
      "reptil": 1722,
      "disp": 1723,
      "block": 1724,
      "unit": 1725,
      "##ormal": 1726,
      "pollen": 1727,
      "gland": 1728,
      "gases": 1729,
      "relax": 1730,
      "##rents": 1731,
      "metabol": 1732,
      "absorbs": 1733,
      "provides": 1734,
      "levels": 1735,
      "waste": 1736,
      "tilt": 1737,
      "radiation": 1738,
      "engine": 1739,
      "backb": 1740,
      "covered": 1741,
      "destroy": 1742,
      "mollusks": 1743,
      "echinod": 1744,
      "pheromones": 1745,
      "tobacco": 1746,
      "ben": 1747,
      "bel": 1748,
      "cal": 1749,
      "coll": 1750,
      "gills": 1751,
      "her": 1752,
      "mir": 1753,
      "ris": 1754,
      "##hol": 1755,
      "##lum": 1756,
      "##ination": 1757,
      "##ane": 1758,
      "tox": 1759,
      "##icellular": 1760,
      "##elf": 1761,
      "##ils": 1762,
      "dehydr": 1763,
      "asso": 1764,
      "who": 1765,
      "electron": 1766,
      "consist": 1767,
      "glands": 1768,
      "across": 1769,
      "##ounds": 1770,
      "##hyll": 1771,
      "expand": 1772,
      "examples": 1773,
      "crust": 1774,
      "amounts": 1775,
      "remo": 1776,
      "reactions": 1777,
      "veget": 1778,
      "phylum": 1779,
      "avail": 1780,
      "territ": 1781,
      "shelter": 1782,
      "copper": 1783,
      "arthropods": 1784,
      "physical": 1785,
      "quickly": 1786,
      "higher": 1787,
      "sleep": 1788,
      "reptiles": 1789,
      "echinoderms": 1790,
      "associ": 1791,
      "aver": 1792,
      "perm": 1793,
      "sn": 1794,
      "take": 1795,
      "tetr": 1796,
      "tiny": 1797,
      "wire": 1798,
      "##hro": 1799,
      "##hip": 1800,
      "##af": 1801,
      "##ici": 1802,
      "##ices": 1803,
      "cap": 1804,
      "order": 1805,
      "##allow": 1806,
      "thick": 1807,
      "spo": 1808,
      "##opl": 1809,
      "contrib": 1810,
      "short": 1811,
      "collect": 1812,
      "few": 1813,
      "feet": 1814,
      "keeping": 1815,
      "arter": 1816,
      "habitats": 1817,
      "gametophytes": 1818,
      "endoc": 1819,
      "sedimentary": 1820,
      "reaction": 1821,
      "passed": 1822,
      "recept": 1823,
      "iron": 1824,
      "easily": 1825,
      "balance": 1826,
      "chlorophyll": 1827,
      "cactus": 1828,
      "meristems": 1829,
      "phase": 1830,
      "inherited": 1831,
      "zygote": 1832,
      "considered": 1833,
      "mirror": 1834,
      "tetrap": 1835,
      "pu": 1836,
      "rise": 1837,
      "ser": 1838,
      "tum": 1839,
      "##equ": 1840,
      "##eous": 1841,
      "##lies": 1842,
      "##can": 1843,
      "##ina": 1844,
      "##inct": 1845,
      "ants": 1846,
      "##aries": 1847,
      "##aster": 1848,
      "ret": 1849,
      "##cept": 1850,
      "stop": 1851,
      "stage": 1852,
      "production": 1853,
      "while": 1854,
      "generat": 1855,
      "##ade": 1856,
      "diploid": 1857,
      "##ization": 1858,
      "##ability": 1859,
      "und": 1860,
      "compounds": 1861,
      "throughout": 1862,
      "smoking": 1863,
      "increased": 1864,
      "const": 1865,
      "release": 1866,
      "##ainst": 1867,
      "active": 1868,
      "against": 1869,
      "cooling": 1870,
      "shell": 1871,
      "propert": 1872,
      "gravitation": 1873,
      "insulin": 1874,
      "##evolution": 1875,
      "extreme": 1876,
      "reduce": 1877,
      "streams": 1878,
      "excret": 1879,
      "kinetic": 1880,
      "ribosomes": 1881,
      "combustion": 1882,
      "moisture": 1883,
      "colonies": 1884,
      "children": 1885,
      "dispers": 1886,
      "available": 1887,
      "endocrine": 1888,
      "cross": 1889,
      "da": 1890,
      "danger": 1891,
      "lakes": 1892,
      "lake": 1893,
      "ox": 1894,
      "rna": 1895,
      "rub": 1896,
      "range": 1897,
      "ul": 1898,
      "##oes": 1899,
      "##tal": 1900,
      "##gr": 1901,
      "##fish": 1902,
      "##zym": 1903,
      "##atively": 1904,
      "##ankton": 1905,
      "enzym": 1906,
      "thr": 1907,
      "##umn": 1908,
      "sounds": 1909,
      "excess": 1910,
      "##estic": 1911,
      "shallow": 1912,
      "colors": 1913,
      "fog": 1914,
      "evol": 1915,
      "warming": 1916,
      "environments": 1917,
      "##ogens": 1918,
      "largest": 1919,
      "burned": 1920,
      "exposed": 1921,
      "transportation": 1922,
      "healthy": 1923,
      "condensing": 1924,
      "condensation": 1925,
      "flooding": 1926,
      "breaking": 1927,
      "adding": 1928,
      "smooth": 1929,
      "periods": 1930,
      "hurric": 1931,
      "minerals": 1932,
      "territory": 1933,
      "average": 1934,
      "##oplankton": 1935,
      "crop": 1936,
      "code": 1937,
      "equ": 1938,
      "fam": 1939,
      "feather": 1940,
      "sick": 1941,
      "tun": 1942,
      "tect": 1943,
      "vit": 1944,
      "##oid": 1945,
      "##ries": 1946,
      "##uck": 1947,
      "##kelet": 1948,
      "##onic": 1949,
      "##iration": 1950,
      "##oskelet": 1951,
      "lives": 1952,
      "threat": 1953,
      "cellular": 1954,
      "flo": 1955,
      "allows": 1956,
      "grows": 1957,
      "sub": 1958,
      "adult": 1959,
      "event": 1960,
      "conserve": 1961,
      "swe": 1962,
      "##ified": 1963,
      "protected": 1964,
      "damag": 1965,
      "oceans": 1966,
      "fuels": 1967,
      "measured": 1968,
      "stems": 1969,
      "absorbed": 1970,
      "##cient": 1971,
      "making": 1972,
      "deposits": 1973,
      "simp": 1974,
      "microscopic": 1975,
      "period": 1976,
      "volcan": 1977,
      "person": 1978,
      "characteristics": 1979,
      "secrete": 1980,
      "mainly": 1981,
      "parasites": 1982,
      "backbone": 1983,
      "feathers": 1984,
      "affects": 1985,
      "bot": 1986,
      "best": 1987,
      "cat": 1988,
      "give": 1989,
      "mod": 1990,
      "must": 1991,
      "op": 1992,
      "pit": 1993,
      "rays": 1994,
      "sil": 1995,
      "sign": 1996,
      "takes": 1997,
      "yeas": 1998,
      "year": 1999,
      "##iel": 2000,
      "##cro": 2001,
      "##ways": 2002,
      "##arily": 2003,
      "forest": 2004,
      "lip": 2005,
      "stove": 2006,
      "##ection": 2007,
      "seg": 2008,
      "exoskelet": 2009,
      "bodily": 2010,
      "cook": 2011,
      "repair": 2012,
      "diver": 2013,
      "insulation": 2014,
      "soils": 2015,
      "unc": 2016,
      "##igr": 2017,
      "four": 2018,
      "producing": 2019,
      "##otherm": 2020,
      "keeps": 2021,
      "mushro": 2022,
      "bright": 2023,
      "includes": 2024,
      "cools": 2025,
      "stem": 2026,
      "condenses": 2027,
      "daylight": 2028,
      "##uitary": 2029,
      "buried": 2030,
      "desert": 2031,
      "supply": 2032,
      "strong": 2033,
      "fibers": 2034,
      "central": 2035,
      "digestive": 2036,
      "igneous": 2037,
      "vegetation": 2038,
      "associated": 2039,
      "receptors": 2040,
      "pituitary": 2041,
      "days": 2042,
      "eating": 2043,
      "equat": 2044,
      "fast": 2045,
      "hand": 2046,
      "heter": 2047,
      "lions": 2048,
      "lose": 2049,
      "mate": 2050,
      "mating": 2051,
      "opp": 2052,
      "pen": 2053,
      "pet": 2054,
      "peat": 2055,
      "patter": 2056,
      "poles": 2057,
      "pestic": 2058,
      "##ogen": 2059,
      "##less": 2060,
      "##lands": 2061,
      "##ding": 2062,
      "##awn": 2063,
      "##mat": 2064,
      "##ator": 2065,
      "##ests": 2066,
      "##erate": 2067,
      "##onges": 2068,
      "##urb": 2069,
      "##ilar": 2070,
      "##osa": 2071,
      "##oses": 2072,
      "##osome": 2073,
      "##ided": 2074,
      "prot": 2075,
      "enc": 2076,
      "##otroph": 2077,
      "stay": 2078,
      "macro": 2079,
      "this": 2080,
      "alco": 2081,
      "intr": 2082,
      "sponges": 2083,
      "##app": 2084,
      "round": 2085,
      "legs": 2086,
      "shiver": 2087,
      "##ropical": 2088,
      "rainf": 2089,
      "solution": 2090,
      "##obic": 2091,
      "nutrient": 2092,
      "##ology": 2093,
      "development": 2094,
      "commonly": 2095,
      "woody": 2096,
      "microb": 2097,
      "trait": 2098,
      "burrow": 2099,
      "similar": 2100,
      "engines": 2101,
      "members": 2102,
      "smoke": 2103,
      "extremely": 2104,
      "creatures": 2105,
      "altern": 2106,
      "geolog": 2107,
      "multicellular": 2108,
      "bigger": 2109,
      "landsl": 2110,
      "blocks": 2111,
      "metabolism": 2112,
      "underg": 2113,
      "gravitational": 2114,
      "dangerous": 2115,
      "equator": 2116,
      "macroevolution": 2117,
      "alcohol": 2118,
      "bark": 2119,
      "bonds": 2120,
      "gold": 2121,
      "homes": 2122,
      "las": 2123,
      "men": 2124,
      "molds": 2125,
      "oz": 2126,
      "por": 2127,
      "rich": 2128,
      "sul": 2129,
      "ur": 2130,
      "wid": 2131,
      "##rum": 2132,
      "##li": 2133,
      "##ft": 2134,
      "##wable": 2135,
      "##erves": 2136,
      "##rel": 2137,
      "##read": 2138,
      "##anced": 2139,
      "inj": 2140,
      "##ency": 2141,
      "##ury": 2142,
      "##iding": 2143,
      "proble": 2144,
      "enters": 2145,
      "intens": 2146,
      "space": 2147,
      "exc": 2148,
      "exert": 2149,
      "fly": 2150,
      "flag": 2151,
      "electrons": 2152,
      "impro": 2153,
      "diseas": 2154,
      "head": 2155,
      "shap": 2156,
      "consists": 2157,
      "bike": 2158,
      "metals": 2159,
      "cyt": 2160,
      "measuring": 2161,
      "sediments": 2162,
      "corals": 2163,
      "decidu": 2164,
      "winds": 2165,
      "parts": 2166,
      "hydrogen": 2167,
      "fluid": 2168,
      "reducing": 2169,
      "devices": 2170,
      "properly": 2171,
      "recycling": 2172,
      "rubber": 2173,
      "mushrooms": 2174,
      "geologic": 2175,
      "ozone": 2176,
      "flagell": 2177,
      "diseases": 2178,
      "fil": 2179,
      "fold": 2180,
      "hiv": 2181,
      "jo": 2182,
      "mess": 2183,
      "mark": 2184,
      "mold": 2185,
      "migr": 2186,
      "nerve": 2187,
      "own": 2188,
      "rap": 2189,
      "rene": 2190,
      "snow": 2191,
      "sink": 2192,
      "tas": 2193,
      "test": 2194,
      "tape": 2195,
      "##tic": 2196,
      "##rig": 2197,
      "##ule": 2198,
      "##anol": 2199,
      "##orph": 2200,
      "##ends": 2201,
      "total": 2202,
      "##aring": 2203,
      "areas": 2204,
      "##ither": 2205,
      "##itions": 2206,
      "##tship": 2207,
      "plates": 2208,
      "##own": 2209,
      "##otic": 2210,
      "once": 2211,
      "necess": 2212,
      "contact": 2213,
      "contamin": 2214,
      "##ably": 2215,
      "##ypus": 2216,
      "##igens": 2217,
      "##ried": 2218,
      "##astic": 2219,
      "cancers": 2220,
      "frequ": 2221,
      "antigens": 2222,
      "fertilized": 2223,
      "weight": 2224,
      "remains": 2225,
      "chromosome": 2226,
      "freezes": 2227,
      "interact": 2228,
      "internal": 2229,
      "support": 2230,
      "fatty": 2231,
      "nucleus": 2232,
      "membr": 2233,
      "products": 2234,
      "involved": 2235,
      "autumn": 2236,
      "determine": 2237,
      "##ordates": 2238,
      "worldw": 2239,
      "density": 2240,
      "released": 2241,
      "parents": 2242,
      "courtship": 2243,
      "platypus": 2244,
      "toxic": 2245,
      "arteries": 2246,
      "stops": 2247,
      "lipids": 2248,
      "##otrophs": 2249,
      "shivering": 2250,
      "sulf": 2251,
      "deciduous": 2252,
      "rapid": 2253,
      "renewable": 2254,
      "del": 2255,
      "ep": 2256,
      "fa": 2257,
      "gives": 2258,
      "hyp": 2259,
      "home": 2260,
      "im": 2261,
      "ly": 2262,
      "med": 2263,
      "mix": 2264,
      "pie": 2265,
      "sy": 2266,
      "squ": 2267,
      "tides": 2268,
      "tropical": 2269,
      "ways": 2270,
      "##ohydr": 2271,
      "##cin": 2272,
      "##vents": 2273,
      "##ication": 2274,
      "##urs": 2275,
      "##osure": 2276,
      "enter": 2277,
      "conn": 2278,
      "having": 2279,
      "mag": 2280,
      "thous": 2281,
      "celled": 2282,
      "could": 2283,
      "composed": 2284,
      "pollut": 2285,
      "solvent": 2286,
      "loud": 2287,
      "carbohydr": 2288,
      "including": 2289,
      "conditions": 2290,
      "aging": 2291,
      "slows": 2292,
      "##ended": 2293,
      "breaks": 2294,
      "location": 2295,
      "seasonal": 2296,
      "deposition": 2297,
      "seeing": 2298,
      "vibrate": 2299,
      "primarily": 2300,
      "landf": 2301,
      "conductor": 2302,
      "microscope": 2303,
      "involves": 2304,
      "variation": 2305,
      "competition": 2306,
      "potential": 2307,
      "magnet": 2308,
      "asexually": 2309,
      "begin": 2310,
      "clear": 2311,
      "rainbow": 2312,
      "aerobic": 2313,
      "final": 2314,
      "mountain": 2315,
      "fruit": 2316,
      "benef": 2317,
      "perme": 2318,
      "spoil": 2319,
      "oxid": 2320,
      "enzymes": 2321,
      "sweet": 2322,
      "bott": 2323,
      "landslides": 2324,
      "taste": 2325,
      "worldwide": 2326,
      "thousands": 2327,
      "bud": 2328,
      "bats": 2329,
      "cig": 2330,
      "dil": 2331,
      "est": 2332,
      "hone": 2333,
      "mill": 2334,
      "mud": 2335,
      "pur": 2336,
      "##ier": 2337,
      "##cup": 2338,
      "##ni": 2339,
      "##fore": 2340,
      "##ming": 2341,
      "##xt": 2342,
      "##ken": 2343,
      "##za": 2344,
      "##inate": 2345,
      "##ree": 2346,
      "##roll": 2347,
      "inorgan": 2348,
      "##ences": 2349,
      "##ice": 2350,
      "##icle": 2351,
      "##ises": 2352,
      "##omob": 2353,
      "##uth": 2354,
      "chordates": 2355,
      "##hern": 2356,
      "spread": 2357,
      "soft": 2358,
      "heats": 2359,
      "##amorph": 2360,
      "formation": 2361,
      "leads": 2362,
      "atom": 2363,
      "##asses": 2364,
      "airpl": 2365,
      "fore": 2366,
      "adults": 2367,
      "key": 2368,
      "refrig": 2369,
      "metamorph": 2370,
      "burns": 2371,
      "##ough": 2372,
      "##ission": 2373,
      "##agn": 2374,
      "##agm": 2375,
      "attac": 2376,
      "##tebrate": 2377,
      "complete": 2378,
      "transported": 2379,
      "immunity": 2380,
      "buildings": 2381,
      "##engers": 2382,
      "bound": 2383,
      "distract": 2384,
      "destruction": 2385,
      "specialized": 2386,
      "irr": 2387,
      "automob": 2388,
      "reduces": 2389,
      "refraction": 2390,
      "asexual": 2391,
      "broken": 2392,
      "ethanol": 2393,
      "deeper": 2394,
      "predators": 2395,
      "aggression": 2396,
      "battery": 2397,
      "wetlands": 2398,
      "##ontroll": 2399,
      "excretory": 2400,
      "eventually": 2401,
      "damaged": 2402,
      "diversity": 2403,
      "uncontroll": 2404,
      "patterns": 2405,
      "roundworms": 2406,
      "improve": 2407,
      "shaped": 2408,
      "sulfur": 2409,
      "lymph": 2410,
      "purp": 2411,
      "inorganic": 2412,
      "bad": 2413,
      "bend": 2414,
      "din": 2415,
      "dun": 2416,
      "last": 2417,
      "moss": 2418,
      "pup": 2419,
      "pne": 2420,
      "tail": 2421,
      "vine": 2422,
      "your": 2423,
      "##ra": 2424,
      "##rap": 2425,
      "##cule": 2426,
      "##fer": 2427,
      "##most": 2428,
      "##where": 2429,
      "##ward": 2430,
      "##ang": 2431,
      "inh": 2432,
      "##icates": 2433,
      "##itical": 2434,
      "##itud": 2435,
      "been": 2436,
      "bears": 2437,
      "before": 2438,
      "prom": 2439,
      "orbit": 2440,
      "haploid": 2441,
      "ones": 2442,
      "stal": 2443,
      "##romagn": 2444,
      "cham": 2445,
      "always": 2446,
      "almost": 2447,
      "deo": 2448,
      "spring": 2449,
      "splas": 2450,
      "exten": 2451,
      "##ivity": 2452,
      "coast": 2453,
      "trun": 2454,
      "nemat": 2455,
      "electromagn": 2456,
      "atoms": 2457,
      "carries": 2458,
      "resist": 2459,
      "shark": 2460,
      "share": 2461,
      "unev": 2462,
      "rains": 2463,
      "##osite": 2464,
      "##ertain": 2465,
      "able": 2466,
      "generations": 2467,
      "exper": 2468,
      "expands": 2469,
      "##ify": 2470,
      "##osperms": 2471,
      "protects": 2472,
      "buil": 2473,
      "crack": 2474,
      "critical": 2475,
      "drink": 2476,
      "position": 2477,
      "molecule": 2478,
      "shed": 2479,
      "anti": 2480,
      "sexually": 2481,
      "##ocy": 2482,
      "functions": 2483,
      "vibrations": 2484,
      "vibrating": 2485,
      "pulled": 2486,
      "receives": 2487,
      "##lasts": 2488,
      "creating": 2489,
      "phyt": 2490,
      "dissolved": 2491,
      "instruction": 2492,
      "poisoning": 2493,
      "influenza": 2494,
      "flashlight": 2495,
      "tetrapod": 2496,
      "hurricanes": 2497,
      "tectonic": 2498,
      "rainfall": 2499,
      "flagella": 2500,
      "pieces": 2501,
      "carbohydrates": 2502,
      "honey": 2503,
      "metamorphic": 2504,
      "attached": 2505,
      "pneum": 2506,
      "nematod": 2507,
      "electromagnetic": 2508,
      "uneven": 2509,
      "ap": 2510,
      "bus": 2511,
      "band": 2512,
      "cup": 2513,
      "certain": 2514,
      "dir": 2515,
      "drop": 2516,
      "done": 2517,
      "fires": 2518,
      "ho": 2519,
      "hib": 2520,
      "lawn": 2521,
      "vess": 2522,
      "wa": 2523,
      "##hr": 2524,
      "##led": 2525,
      "##ior": 2526,
      "##cing": 2527,
      "##uts": 2528,
      "##ugh": 2529,
      "##normal": 2530,
      "##bal": 2531,
      "##den": 2532,
      "##agen": 2533,
      "##kes": 2534,
      "##eration": 2535,
      "##onia": 2536,
      "ann": 2537,
      "##rous": 2538,
      "##itive": 2539,
      "##itting": 2540,
      "##usion": 2541,
      "dom": 2542,
      "forces": 2543,
      "caves": 2544,
      "rev": 2545,
      "ent": 2546,
      "stor": 2547,
      "stom": 2548,
      "##ectar": 2549,
      "thund": 2550,
      "along": 2551,
      "##ume": 2552,
      "##erst": 2553,
      "##amand": 2554,
      "coil": 2555,
      "white": 2556,
      "changed": 2557,
      "grown": 2558,
      "carcin": 2559,
      "##izes": 2560,
      "hear": 2561,
      "##aks": 2562,
      "adj": 2563,
      "##rupt": 2564,
      "feel": 2565,
      "abnormal": 2566,
      "liquids": 2567,
      "grains": 2568,
      "refer": 2569,
      "##ossible": 2570,
      "depend": 2571,
      "mammal": 2572,
      "salamand": 2573,
      "bird": 2574,
      "##ights": 2575,
      "##aches": 2576,
      "cooler": 2577,
      "slime": 2578,
      "##bered": 2579,
      "##ological": 2580,
      "fungus": 2581,
      "sweating": 2582,
      "##sem": 2583,
      "groundwater": 2584,
      "receive": 2585,
      "groups": 2586,
      "toward": 2587,
      "starfish": 2588,
      "volume": 2589,
      "fluids": 2590,
      "activity": 2591,
      "polyp": 2592,
      "decompose": 2593,
      "reduced": 2594,
      "begins": 2595,
      "aggressive": 2596,
      "pump": 2597,
      "tumor": 2598,
      "retina": 2599,
      "simple": 2600,
      "volcanic": 2601,
      "open": 2602,
      "##ield": 2603,
      "opposite": 2604,
      "pesticides": 2605,
      "microbes": 2606,
      "burrows": 2607,
      "exerted": 2608,
      "messengers": 2609,
      "frequent": 2610,
      "budding": 2611,
      "irradi": 2612,
      "purpose": 2613,
      "dinosa": 2614,
      "dunes": 2615,
      "chambered": 2616,
      "##ocytes": 2617,
      "phytoplankton": 2618,
      "instructions": 2619,
      "pneumonia": 2620,
      "dirt": 2621,
      "hibern": 2622,
      "salamanders": 2623,
      "bar": 2624,
      "ball": 2625,
      "duck": 2626,
      "effects": 2627,
      "fact": 2628,
      "fight": 2629,
      "gym": 2630,
      "hous": 2631,
      "hour": 2632,
      "ite": 2633,
      "kid": 2634,
      "kick": 2635,
      "mat": 2636,
      "nort": 2637,
      "name": 2638,
      "nectar": 2639,
      "son": 2640,
      "sel": 2641,
      "sna": 2642,
      "scient": 2643,
      "term": 2644,
      "ves": 2645,
      "val": 2646,
      "via": 2647,
      "wed": 2648,
      "##ound": 2649,
      "##ling": 2650,
      "##gre": 2651,
      "##che": 2652,
      "##nosperms": 2653,
      "##bb": 2654,
      "##dom": 2655,
      "##az": 2656,
      "##hetic": 2657,
      "##onts": 2658,
      "anten": 2659,
      "##orn": 2660,
      "##orts": 2661,
      "##iting": 2662,
      "forests": 2663,
      "##iring": 2664,
      "bea": 2665,
      "##ety": 2666,
      "##ulose": 2667,
      "orig": 2668,
      "##owers": 2669,
      "##otrem": 2670,
      "stren": 2671,
      "planets": 2672,
      "##active": 2673,
      "thirst": 2674,
      "mouth": 2675,
      "cellulose": 2676,
      "spect": 2677,
      "doesn": 2678,
      "##opause": 2679,
      "##yst": 2680,
      "##iven": 2681,
      "coat": 2682,
      "neut": 2683,
      "mostly": 2684,
      "##andes": 2685,
      "compon": 2686,
      "adv": 2687,
      "tech": 2688,
      "##nae": 2689,
      "swit": 2690,
      "rely": 2691,
      "biom": 2692,
      "biological": 2693,
      "blooded": 2694,
      "##ogn": 2695,
      "##ips": 2696,
      "##astes": 2697,
      "refers": 2698,
      "generation": 2699,
      "meth": 2700,
      "nature": 2701,
      "fronts": 2702,
      "structural": 2703,
      "step": 2704,
      "remain": 2705,
      "base": 2706,
      "functional": 2707,
      "communities": 2708,
      "seasonally": 2709,
      "evaporates": 2710,
      "recogn": 2711,
      "desc": 2712,
      "defined": 2713,
      "responsible": 2714,
      "accel": 2715,
      "incandes": 2716,
      "monotrem": 2717,
      "stimulates": 2718,
      "playing": 2719,
      "releases": 2720,
      "parent": 2721,
      "rainbows": 2722,
      "pathogens": 2723,
      "element": 2724,
      "replen": 2725,
      "regulated": 2726,
      "belong": 2727,
      "##iciency": 2728,
      "contribut": 2729,
      "serious": 2730,
      "properties": 2731,
      "daily": 2732,
      "thrust": 2733,
      "evolve": 2734,
      "floor": 2735,
      "catal": 2736,
      "heterotrophs": 2737,
      "penetr": 2738,
      "alternation": 2739,
      "menopause": 2740,
      "porcup": 2741,
      "injury": 2742,
      "necessary": 2743,
      "membranes": 2744,
      "squir": 2745,
      "connect": 2746,
      "magma": 2747,
      "foreign": 2748,
      "automobile": 2749,
      "vinegar": 2750,
      "experi": 2751,
      "adjust": 2752,
      "gymnosperms": 2753,
      "hours": 2754,
      "kidne": 2755,
      "northern": 2756,
      "antennae": 2757,
      "streng": 2758,
      "bones": 2759,
      "dorm": 2760,
      "either": 2761,
      "har": 2762,
      "lost": 2763,
      "mars": 2764,
      "norm": 2765,
      "normal": 2766,
      "ped": 2767,
      "ts": 2768,
      "vi": 2769,
      "vary": 2770,
      "wiring": 2771,
      "##oves": 2772,
      "##iqu": 2773,
      "##iosis": 2774,
      "##bell": 2775,
      "##worm": 2776,
      "##ately": 2777,
      "##inary": 2778,
      "##ream": 2779,
      "##urally": 2780,
      "dog": 2781,
      "door": 2782,
      "##oster": 2783,
      "lif": 2784,
      "places": 2785,
      "concent": 2786,
      "##ental": 2787,
      "##vers": 2788,
      "thaw": 2789,
      "##mpt": 2790,
      "sem": 2791,
      "assem": 2792,
      "##aps": 2793,
      "##ansion": 2794,
      "neur": 2795,
      "whist": 2796,
      "meiosis": 2797,
      "diap": 2798,
      "##mentation": 2799,
      "carried": 2800,
      "protection": 2801,
      "uniqu": 2802,
      "phones": 2803,
      "phosp": 2804,
      "flowing": 2805,
      "typically": 2806,
      "others": 2807,
      "look": 2808,
      "looking": 2809,
      "relatively": 2810,
      "respond": 2811,
      "exposure": 2812,
      "expansion": 2813,
      "masses": 2814,
      "perf": 2815,
      "getting": 2816,
      "front": 2817,
      "processes": 2818,
      "##stream": 2819,
      "controll": 2820,
      "local": 2821,
      "eaten": 2822,
      "distance": 2823,
      "distances": 2824,
      "females": 2825,
      "passive": 2826,
      "emit": 2827,
      "emerg": 2828,
      "learned": 2829,
      "nucleot": 2830,
      "flowering": 2831,
      "hydro": 2832,
      "cutting": 2833,
      "layers": 2834,
      "slowly": 2835,
      "dissolving": 2836,
      "persp": 2837,
      "pushing": 2838,
      "pushed": 2839,
      "chloroplasts": 2840,
      "cacti": 2841,
      "else": 2842,
      "characteristic": 2843,
      "multip": 2844,
      "brown": 2845,
      "batteries": 2846,
      "separating": 2847,
      "several": 2848,
      "dehydration": 2849,
      "ultr": 2850,
      "yeast": 2851,
      "exoskeleton": 2852,
      "protists": 2853,
      "##apping": 2854,
      "width": 2855,
      "filam": 2856,
      "join": 2857,
      "contaminated": 2858,
      "image": 2859,
      "permeable": 2860,
      "refrigerat": 2861,
      "lymphocytes": 2862,
      "extend": 2863,
      "coastal": 2864,
      "sharks": 2865,
      "vessels": 2866,
      "stomach": 2867,
      "hearts": 2868,
      "selection": 2869,
      "spectrum": 2870,
      "switch": 2871,
      "monotremes": 2872,
      "replenish": 2873,
      "strength": 2874,
      "normally": 2875,
      "concentr": 2876,
      "unique": 2877,
      "bab": 2878,
      "fer": 2879,
      "fern": 2880,
      "faster": 2881,
      "hal": 2882,
      "hard": 2883,
      "hold": 2884,
      "holes": 2885,
      "lot": 2886,
      "sat": 2887,
      "sin": 2888,
      "tub": 2889,
      "times": 2890,
      "uv": 2891,
      "vents": 2892,
      "vanes": 2893,
      "wom": 2894,
      "wings": 2895,
      "wastes": 2896,
      "youn": 2897,
      "##ool": 2898,
      "##oud": 2899,
      "##oids": 2900,
      "##olet": 2901,
      "##ever": 2902,
      "##eci": 2903,
      "##rial": 2904,
      "##living": 2905,
      "##cr": 2906,
      "##erving": 2907,
      "ingest": 2908,
      "##arb": 2909,
      "##lex": 2910,
      "##oded": 2911,
      "beach": 2912,
      "stamin": 2913,
      "stoves": 2914,
      "thor": 2915,
      "exist": 2916,
      "##oplas": 2917,
      "forming": 2918,
      "leg": 2919,
      "true": 2920,
      "repel": 2921,
      "growing": 2922,
      "##ffe": 2923,
      "disast": 2924,
      "shar": 2925,
      "reproduces": 2926,
      "##aking": 2927,
      "prism": 2928,
      "close": 2929,
      "cloud": 2930,
      "prevents": 2931,
      "text": 2932,
      "transl": 2933,
      "related": 2934,
      "##amps": 2935,
      "depress": 2936,
      "driving": 2937,
      "transpiration": 2938,
      "extinct": 2939,
      "##aviolet": 2940,
      "lacks": 2941,
      "itself": 2942,
      "steam": 2943,
      "absorbing": 2944,
      "remove": 2945,
      "evaporate": 2946,
      "regions": 2947,
      "transform": 2948,
      "turns": 2949,
      "scrap": 2950,
      "##aret": 2951,
      "nuclear": 2952,
      "veins": 2953,
      "consumed": 2954,
      "running": 2955,
      "working": 2956,
      "##cogen": 2957,
      "affected": 2958,
      "activation": 2959,
      "dissolve": 2960,
      "avoid": 2961,
      "fiber": 2962,
      "monoxide": 2963,
      "freshwater": 2964,
      "hurt": 2965,
      "nonliving": 2966,
      "continue": 2967,
      "present": 2968,
      "preserv": 2969,
      "ethologists": 2970,
      "influences": 2971,
      "course": 2972,
      "visible": 2973,
      "severe": 2974,
      "mountains": 2975,
      "destroyed": 2976,
      "collagen": 2977,
      "risk": 2978,
      "snapping": 2979,
      "capable": 2980,
      "contribute": 2981,
      "collected": 2982,
      "##othermic": 2983,
      "rapidly": 2984,
      "cigaret": 2985,
      "millions": 2986,
      "airplanes": 2987,
      "##hragm": 2988,
      "revol": 2989,
      "sonar": 2990,
      "wedging": 2991,
      "biomass": 2992,
      "incandescent": 2993,
      "whistle": 2994,
      "diaphragm": 2995,
      "ultraviolet": 2996,
      "young": 2997,
      "stamina": 2998,
      "##oplasm": 2999,
      "texture": 3000,
      "action": 3001,
      "dies": 3002,
      "esp": 3003,
      "fis": 3004,
      "fission": 3005,
      "field": 3006,
      "h2": 3007,
      "hat": 3008,
      "lat": 3009,
      "lens": 3010,
      "loses": 3011,
      "mates": 3012,
      "nar": 3013,
      "nest": 3014,
      "nerves": 3015,
      "ol": 3016,
      "possible": 3017,
      "sod": 3018,
      "set": 3019,
      "tel": 3020,
      "tend": 3021,
      "wer": 3022,
      "zo": 3023,
      "##off": 3024,
      "##oactive": 3025,
      "##tc": 3026,
      "##tim": 3027,
      "##gon": 3028,
      "##fact": 3029,
      "##bo": 3030,
      "##dle": 3031,
      "##day": 3032,
      "##ps": 3033,
      "##00": 3034,
      "these": 3035,
      "##onom": 3036,
      "##ional": 3037,
      "read": 3038,
      "recess": 3039,
      "beings": 3040,
      "prob": 3041,
      "plains": 3042,
      "oncogen": 3043,
      "stri": 3044,
      "three": 3045,
      "intended": 3046,
      "dew": 3047,
      "degre": 3048,
      "spl": 3049,
      "##umin": 3050,
      "exh": 3051,
      "ass": 3052,
      "##estrial": 3053,
      "surround": 3054,
      "unequ": 3055,
      "specific": 3056,
      "comput": 3057,
      "##ropower": 3058,
      "planted": 3059,
      "increasing": 3060,
      "even": 3061,
      "conserving": 3062,
      "warmer": 3063,
      "prey": 3064,
      "swell": 3065,
      "solute": 3066,
      "biologists": 3067,
      "partic": 3068,
      "larv": 3069,
      "deple": 3070,
      "naturally": 3071,
      "##issions": 3072,
      "birth": 3073,
      "arr": 3074,
      "arche": 3075,
      "noise": 3076,
      "healing": 3077,
      "surviving": 3078,
      "##ption": 3079,
      "sources": 3080,
      "decay": 3081,
      "endothermic": 3082,
      "infected": 3083,
      "communication": 3084,
      "regrow": 3085,
      "disturb": 3086,
      "passes": 3087,
      "emissions": 3088,
      "deposited": 3089,
      "charge": 3090,
      "pulls": 3091,
      "fats": 3092,
      "hydr": 3093,
      "##ared": 3094,
      "insulator": 3095,
      "added": 3096,
      "leading": 3097,
      "preced": 3098,
      "eyesight": 3099,
      "everywhere": 3100,
      "radioactive": 3101,
      "contraction": 3102,
      "runs": 3103,
      "starts": 3104,
      "earthquake": 3105,
      "effective": 3106,
      "hydropower": 3107,
      "layer": 3108,
      "terrestrial": 3109,
      "push": 3110,
      "compete": 3111,
      "meristem": 3112,
      "directly": 3113,
      "dense": 3114,
      "classified": 3115,
      "poisonous": 3116,
      "fruits": 3117,
      "removed": 3118,
      "mirrors": 3119,
      "generator": 3120,
      "property": 3121,
      "ultim": 3122,
      "excessive": 3123,
      "crops": 3124,
      "cooked": 3125,
      "centralized": 3126,
      "petro": 3127,
      "underground": 3128,
      "problems": 3129,
      "landfills": 3130,
      "distracted": 3131,
      "promote": 3132,
      "oneself": 3133,
      "waxy": 3134,
      "annel": 3135,
      "entire": 3136,
      "referred": 3137,
      "ducks": 3138,
      "describ": 3139,
      "kidneys": 3140,
      "dormant": 3141,
      "pedals": 3142,
      "doorbell": 3143,
      "perspiration": 3144,
      "##ecially": 3145,
      "thorax": 3146,
      "scraping": 3147,
      "cigarettes": 3148,
      "especially": 3149,
      "were": 3150,
      "##gonium": 3151,
      "recessive": 3152,
      "degrees": 3153,
      "archegonium": 3154,
      "aid": 3155,
      "bone": 3156,
      "dro": 3157,
      "er": 3158,
      "ero": 3159,
      "erupt": 3160,
      "fit": 3161,
      "feat": 3162,
      "furn": 3163,
      "link": 3164,
      "mr": 3165,
      "mil": 3166,
      "mens": 3167,
      "oak": 3168,
      "outs": 3169,
      "sust": 3170,
      "tur": 3171,
      "tid": 3172,
      "treat": 3173,
      "turb": 3174,
      "vom": 3175,
      "wires": 3176,
      "wider": 3177,
      "##tle": 3178,
      "##tles": 3179,
      "##sion": 3180,
      "##lor": 3181,
      "##land": 3182,
      "##ients": 3183,
      "##cus": 3184,
      "##ches": 3185,
      "##ped": 3186,
      "##erts": 3187,
      "##ining": 3188,
      "##inity": 3189,
      "##inant": 3190,
      "##onucle": 3191,
      "##urated": 3192,
      "##ilib": 3193,
      "caver": 3194,
      "caffe": 3195,
      "##imal": 3196,
      "real": 3197,
      "##ules": 3198,
      "envelop": 3199,
      "plate": 3200,
      "conve": 3201,
      "stations": 3202,
      "stick": 3203,
      "string": 3204,
      "plankton": 3205,
      "##actites": 3206,
      "chr": 3207,
      "chlor": 3208,
      "seep": 3209,
      "##heric": 3210,
      "debr": 3211,
      "##ysts": 3212,
      "flat": 3213,
      "##avor": 3214,
      "neph": 3215,
      "chances": 3216,
      "earthworm": 3217,
      "mean": 3218,
      "##mented": 3219,
      "##ffici": 3220,
      "blue": 3221,
      "##ortion": 3222,
      "compact": 3223,
      "compress": 3224,
      "##rium": 3225,
      "##osition": 3226,
      "humid": 3227,
      "##thermal": 3228,
      "relies": 3229,
      "divides": 3230,
      "divided": 3231,
      "upon": 3232,
      "skelet": 3233,
      "deplet": 3234,
      "depends": 3235,
      "behind": 3236,
      "cycl": 3237,
      "absorption": 3238,
      "sensitive": 3239,
      "protective": 3240,
      "cran": 3241,
      "##acity": 3242,
      "highly": 3243,
      "endings": 3244,
      "endosp": 3245,
      "infections": 3246,
      "powerful": 3247,
      "mechanisms": 3248,
      "charges": 3249,
      "kills": 3250,
      "killing": 3251,
      "deserts": 3252,
      "conduction": 3253,
      "runoff": 3254,
      "reflects": 3255,
      "direction": 3256,
      "laying": 3257,
      "inches": 3258,
      "##ification": 3259,
      "determined": 3260,
      "adaptation": 3261,
      "pancreas": 3262,
      "magnetic": 3263,
      "ovaries": 3264,
      "fanning": 3265,
      "clean": 3266,
      "darkness": 3267,
      "pathogen": 3268,
      "separate": 3269,
      "visual": 3270,
      "relaxation": 3271,
      "capacity": 3272,
      "tetrapods": 3273,
      "tumors": 3274,
      "##ception": 3275,
      "generating": 3276,
      "equilib": 3277,
      "vital": 3278,
      "modern": 3279,
      "silver": 3280,
      "segments": 3281,
      "##othermia": 3282,
      "encoded": 3283,
      "cytok": 3284,
      "folding": 3285,
      "delt": 3286,
      "epid": 3287,
      "fault": 3288,
      "hypothermia": 3289,
      "symm": 3290,
      "pupil": 3291,
      "##itudes": 3292,
      "stalactites": 3293,
      "trunks": 3294,
      "thunderst": 3295,
      "carcinogens": 3296,
      "polyps": 3297,
      "dinosaurs": 3298,
      "housing": 3299,
      "item": 3300,
      "##azing": 3301,
      "neutral": 3302,
      "method": 3303,
      "catalysts": 3304,
      "squirrel": 3305,
      "lifting": 3306,
      "thawing": 3307,
      "perform": 3308,
      "controlled": 3309,
      "hydrothermal": 3310,
      "refrigerator": 3311,
      "fermentation": 3312,
      "ferns": 3313,
      "narrow": 3314,
      "unequal": 3315,
      "larvae": 3316,
      "dropp": 3317,
      "eruptions": 3318,
      "fitness": 3319,
      "mrna": 3320,
      "outside": 3321,
      "sustain": 3322,
      "tidal": 3323,
      "##onucleic": 3324,
      "debris": 3325,
      "nephr": 3326,
      "depletion": 3327,
      "equilibrium": 3328,
      "bites": 3329,
      "cru": 3330,
      "dating": 3331,
      "full": 3332,
      "gir": 3333,
      "himal": 3334,
      "meat": 3335,
      "males": 3336,
      "mowers": 3337,
      "pac": 3338,
      "pub": 3339,
      "ponds": 3340,
      "rad": 3341,
      "sight": 3342,
      "sands": 3343,
      "tar": 3344,
      "vision": 3345,
      "vacc": 3346,
      "wave": 3347,
      "##hist": 3348,
      "##rition": 3349,
      "##ls": 3350,
      "##lm": 3351,
      "##gi": 3352,
      "##gely": 3353,
      "##ian": 3354,
      "##iation": 3355,
      "##ufact": 3356,
      "##flies": 3357,
      "##burn": 3358,
      "##ded": 3359,
      "##dden": 3360,
      "##yhe": 3361,
      "##wood": 3362,
      "##ze": 3363,
      "##zards": 3364,
      "##atic": 3365,
      "##inction": 3366,
      "##ened": 3367,
      "toast": 3368,
      "##ctic": 3369,
      "##itu": 3370,
      "##uster": 3371,
      "##osts": 3372,
      "##oma": 3373,
      "reas": 3374,
      "##idual": 3375,
      "##etry": 3376,
      "ligh": 3377,
      "plastic": 3378,
      "##ellent": 3379,
      "##thing": 3380,
      "##though": 3381,
      "thus": 3382,
      "alt": 3383,
      "although": 3384,
      "moved": 3385,
      "exter": 3386,
      "aster": 3387,
      "organized": 3388,
      "##ival": 3389,
      "##amm": 3390,
      "##amed": 3391,
      "##terflies": 3392,
      "room": 3393,
      "coats": 3394,
      "leaf": 3395,
      "whales": 3396,
      "allow": 3397,
      "sudden": 3398,
      "carp": 3399,
      "cartil": 3400,
      "sunburn": 3401,
      "displ": 3402,
      "useful": 3403,
      "manufact": 3404,
      "clams": 3405,
      "cluster": 3406,
      "##xyrib": 3407,
      "trem": 3408,
      "bacterial": 3409,
      "producer": 3410,
      "abund": 3411,
      "loose": 3412,
      "vertebrate": 3413,
      "environmental": 3414,
      "general": 3415,
      "##bry": 3416,
      "largely": 3417,
      "windm": 3418,
      "windward": 3419,
      "##hered": 3420,
      "among": 3421,
      "amni": 3422,
      "pool": 3423,
      "breath": 3424,
      "breathes": 3425,
      "senses": 3426,
      "sensing": 3427,
      "acts": 3428,
      "##ilize": 3429,
      "differences": 3430,
      "corn": 3431,
      "provided": 3432,
      "extract": 3433,
      "extra": 3434,
      "extinction": 3435,
      "##inesis": 3436,
      "measurement": 3437,
      "photons": 3438,
      "containing": 3439,
      "condense": 3440,
      "gamete": 3441,
      "powered": 3442,
      "surfaces": 3443,
      "attracts": 3444,
      "attracted": 3445,
      "atmospheric": 3446,
      "embry": 3447,
      "seek": 3448,
      "vibration": 3449,
      "currents": 3450,
      "butterflies": 3451,
      "rotation": 3452,
      "simpl": 3453,
      "sandb": 3454,
      "melt": 3455,
      "better": 3456,
      "productivity": 3457,
      "circulation": 3458,
      "accum": 3459,
      "activities": 3460,
      "determines": 3461,
      "variety": 3462,
      "individual": 3463,
      "elim": 3464,
      "shelf": 3465,
      "continues": 3466,
      "decomposition": 3467,
      "digestion": 3468,
      "phases": 3469,
      "kinds": 3470,
      "elements": 3471,
      "replac": 3472,
      "platyhe": 3473,
      "collaps": 3474,
      "dispersal": 3475,
      "##grad": 3476,
      "evolved": 3477,
      "famil": 3478,
      "family": 3479,
      "sickness": 3480,
      "tunicates": 3481,
      "yeasts": 3482,
      "segmented": 3483,
      "exoskeletons": 3484,
      "excellent": 3485,
      "cytoplasm": 3486,
      "uncontrollably": 3487,
      "deoxyrib": 3488,
      "splashing": 3489,
      "built": 3490,
      "antigen": 3491,
      "nematodes": 3492,
      "apart": 3493,
      "kicked": 3494,
      "mature": 3495,
      "beavers": 3496,
      "techn": 3497,
      "contributes": 3498,
      "semi": 3499,
      "assemb": 3500,
      "neurons": 3501,
      "nucleotides": 3502,
      "saturated": 3503,
      "disasters": 3504,
      "zooplankton": 3505,
      "depleted": 3506,
      "caffeine": 3507,
      "seeping": 3508,
      "##fficient": 3509,
      "cytokinesis": 3510,
      "thunderstorms": 3511,
      "himalay": 3512,
      "##lmint": 3513,
      "cartilage": 3514,
      "platyhelmint": 3515,
      "deoxyribonucleic": 3516,
      "bit": 3517,
      "bind": 3518,
      "cel": 3519,
      "ej": 3520,
      "fans": 3521,
      "face": 3522,
      "fair": 3523,
      "fix": 3524,
      "gard": 3525,
      "given": 3526,
      "hun": 3527,
      "hitting": 3528,
      "id": 3529,
      "ion": 3530,
      "line": 3531,
      "my": 3532,
      "nor": 3533,
      "now": 3534,
      "old": 3535,
      "oper": 3536,
      "pul": 3537,
      "pip": 3538,
      "rings": 3539,
      "rare": 3540,
      "sa": 3541,
      "sus": 3542,
      "sort": 3543,
      "sites": 3544,
      "sym": 3545,
      "saf": 3546,
      "tro": 3547,
      "tide": 3548,
      "uter": 3549,
      "weat": 3550,
      "wavel": 3551,
      "##tru": 3552,
      "##lic": 3553,
      "##lph": 3554,
      "##lene": 3555,
      "##lights": 3556,
      "##gas": 3557,
      "##ially": 3558,
      "##come": 3559,
      "##cape": 3560,
      "##by": 3561,
      "##down": 3562,
      "##acul": 3563,
      "##ying": 3564,
      "##mon": 3565,
      "##mar": 3566,
      "##put": 3567,
      "##wor": 3568,
      "##atically": 3569,
      "##era": 3570,
      "##erous": 3571,
      "##inal": 3572,
      "##anite": 3573,
      "ane": 3574,
      "ancient": 3575,
      "##oric": 3576,
      "##ories": 3577,
      "##orter": 3578,
      "##orest": 3579,
      "##orang": 3580,
      "tol": 3581,
      "top": 3582,
      "tough": 3583,
      "today": 3584,
      "##itic": 3585,
      "##uses": 3586,
      "##ask": 3587,
      "##asis": 3588,
      "##ished": 3589,
      "##ley": 3590,
      "##lets": 3591,
      "##leum": 3592,
      "dolph": 3593,
      "##odef": 3594,
      "##ilia": 3595,
      "##osing": 3596,
      "##osen": 3597,
      "##oming": 3598,
      "bee": 3599,
      "bear": 3600,
      "beads": 3601,
      "bearing": 3602,
      "beaks": 3603,
      "station": 3604,
      "still": 3605,
      "states": 3606,
      "stand": 3607,
      "storm": 3608,
      "storms": 3609,
      "stress": 3610,
      "stability": 3611,
      "sporang": 3612,
      "exchan": 3613,
      "##oph": 3614,
      "asp": 3615,
      "##amatically": 3616,
      "##ured": 3617,
      "##lying": 3618,
      "##aving": 3619,
      "train": 3620,
      "##ibit": 3621,
      "##ades": 3622,
      "however": 3623,
      "shru": 3624,
      "should": 3625,
      "blowing": 3626,
      "unbal": 3627,
      "##rost": 3628,
      "##urnal": 3629,
      "closed": 3630,
      "events": 3631,
      "consequ": 3632,
      "conserves": 3633,
      "helper": 3634,
      "fever": 3635,
      "converting": 3636,
      "prehist": 3637,
      "transm": 3638,
      "impacted": 3639,
      "logs": 3640,
      "grasses": 3641,
      "granite": 3642,
      "dividing": 3643,
      "generated": 3644,
      "downstream": 3645,
      "salinity": 3646,
      "bring": 3647,
      "worms": 3648,
      "works": 3649,
      "noises": 3650,
      "condition": 3651,
      "protecting": 3652,
      "firecr": 3653,
      "dramatically": 3654,
      "bread": 3655,
      "again": 3656,
      "developments": 3657,
      "negatively": 3658,
      "steel": 3659,
      "immunodef": 3660,
      "pollinate": 3661,
      "webb": 3662,
      "breakdown": 3663,
      "##ocation": 3664,
      "acidity": 3665,
      "mechanism": 3666,
      "distrib": 3667,
      "controls": 3668,
      "freeze": 3669,
      "marble": 3670,
      "interfer": 3671,
      "photosynthetic": 3672,
      "turned": 3673,
      "design": 3674,
      "varies": 3675,
      "addition": 3676,
      "specialization": 3677,
      "frog": 3678,
      "microscopes": 3679,
      "reflecting": 3680,
      "echid": 3681,
      "preventing": 3682,
      "invertebrate": 3683,
      "started": 3684,
      "startle": 3685,
      "stream": 3686,
      "influence": 3687,
      "balanced": 3688,
      "adaptations": 3689,
      "painful": 3690,
      "goes": 3691,
      "refracted": 3692,
      "deadly": 3693,
      "destroys": 3694,
      "swims": 3695,
      "wildli": 3696,
      "regulate": 3697,
      "below": 3698,
      "herb": 3699,
      "snakes": 3700,
      "constant": 3701,
      "excretion": 3702,
      "crossing": 3703,
      "hurricane": 3704,
      "submar": 3705,
      "petals": 3706,
      "alcoholic": 3707,
      "urination": 3708,
      "problem": 3709,
      "intense": 3710,
      "migrants": 3711,
      "sinkh": 3712,
      "testoster": 3713,
      "interacting": 3714,
      "entering": 3715,
      "magnetism": 3716,
      "bottom": 3717,
      "dilation": 3718,
      "bending": 3719,
      "resistance": 3720,
      "hole": 3721,
      "storing": 3722,
      "coiled": 3723,
      "frequently": 3724,
      "irradiation": 3725,
      "snails": 3726,
      "scientists": 3727,
      "components": 3728,
      "recognizes": 3729,
      "porcupine": 3730,
      "experience": 3731,
      "emerge": 3732,
      "sharp": 3733,
      "revolving": 3734,
      "hatch": 3735,
      "sodium": 3736,
      "readily": 3737,
      "surrounding": 3738,
      "computers": 3739,
      "hydration": 3740,
      "petroleum": 3741,
      "annelids": 3742,
      "feature": 3743,
      "linked": 3744,
      "menstru": 3745,
      "vomiting": 3746,
      "convection": 3747,
      "humidity": 3748,
      "cranber": 3749,
      "squirrels": 3750,
      "sandst": 3751,
      "reason": 3752,
      "lights": 3753,
      "technology": 3754,
      "platyhelminthes": 3755,
      "ejacul": 3756,
      "ident": 3757,
      "trout": 3758,
      "uterus": 3759,
      "weathered": 3760,
      "wavelength": 3761,
      "sporangia": 3762,
      "unbalanced": 3763,
      "prehistoric": 3764,
      "firecrack": 3765,
      "wildlife": 3766,
      "testosterone": 3767,
      "menstruation": 3768,
      "ejaculation": 3769,
      "amp": 3770,
      "bil": 3771,
      "bam": 3772,
      "boun": 3773,
      "cues": 3774,
      "cilia": 3775,
      "dams": 3776,
      "ed": 3777,
      "fusion": 3778,
      "germ": 3779,
      "guit": 3780,
      "garb": 3781,
      "hits": 3782,
      "hunt": 3783,
      "hosts": 3784,
      "ide": 3785,
      "ima": 3786,
      "king": 3787,
      "kids": 3788,
      "kitt": 3789,
      "led": 3790,
      "mid": 3791,
      "mower": 3792,
      "moles": 3793,
      "pine": 3794,
      "rh": 3795,
      "rat": 3796,
      "rul": 3797,
      "rand": 3798,
      "rust": 3799,
      "raw": 3800,
      "riding": 3801,
      "six": 3802,
      "tul": 3803,
      "tig": 3804,
      "ven": 3805,
      "vag": 3806,
      "##of": 3807,
      "##orous": 3808,
      "##res": 3809,
      "##sts": 3810,
      "##ug": 3811,
      "##ums": 3812,
      "##ner": 3813,
      "##fort": 3814,
      "##bol": 3815,
      "##pox": 3816,
      "##val": 3817,
      "##zen": 3818,
      "##inc": 3819,
      "##ints": 3820,
      "##anges": 3821,
      "##onics": 3822,
      "##rog": 3823,
      "indu": 3824,
      "##eding": 3825,
      "touc": 3826,
      "##ica": 3827,
      "##icial": 3828,
      "##iter": 3829,
      "##ised": 3830,
      "##iles": 3831,
      "##omal": 3832,
      "reach": 3833,
      "enab": 3834,
      "enough": 3835,
      "cones": 3836,
      "##otrop": 3837,
      "##tegr": 3838,
      "usable": 3839,
      "had": 3840,
      "stab": 3841,
      "stores": 3842,
      "those": 3843,
      "alive": 3844,
      "alumin": 3845,
      "spr": 3846,
      "soak": 3847,
      "##ope": 3848,
      "##ived": 3849,
      "##ivores": 3850,
      "formations": 3851,
      "rough": 3852,
      "##ostasis": 3853,
      "trig": 3854,
      "##ibility": 3855,
      "genus": 3856,
      "ears": 3857,
      "repres": 3858,
      "allergy": 3859,
      "##pper": 3860,
      "succ": 3861,
      "##assium": 3862,
      "shorter": 3863,
      "unite": 3864,
      "unli": 3865,
      "phone": 3866,
      "someone": 3867,
      "compost": 3868,
      "compound": 3869,
      "focus": 3870,
      "##ropod": 3871,
      "##rup": 3872,
      "##rif": 3873,
      "##rier": 3874,
      "clot": 3875,
      "##acks": 3876,
      "##xygenated": 3877,
      "grass": 3878,
      "reflex": 3879,
      "responds": 3880,
      "harming": 3881,
      "brains": 3882,
      "arctic": 3883,
      "actually": 3884,
      "fired": 3885,
      "cryst": 3886,
      "carbonic": 3887,
      "##karyotic": 3888,
      "nutrition": 3889,
      "decreasing": 3890,
      "sheep": 3891,
      "developed": 3892,
      "##ynucle": 3893,
      "phototrop": 3894,
      "immunization": 3895,
      "##cium": 3896,
      "basis": 3897,
      "sweats": 3898,
      "emot": 3899,
      "bursts": 3900,
      "follow": 3901,
      "pulling": 3902,
      "turning": 3903,
      "supplies": 3904,
      "scar": 3905,
      "learning": 3906,
      "insulate": 3907,
      "varied": 3908,
      "essent": 3909,
      "combine": 3910,
      "frozen": 3911,
      "limbs": 3912,
      "memory": 3913,
      "feeds": 3914,
      "conductors": 3915,
      "motility": 3916,
      "contractions": 3917,
      "strat": 3918,
      "reflected": 3919,
      "detected": 3920,
      "numerous": 3921,
      "incin": 3922,
      "travels": 3923,
      "various": 3924,
      "stimulant": 3925,
      "polar": 3926,
      "polynucle": 3927,
      "going": 3928,
      "panel": 3929,
      "instrum": 3930,
      "competing": 3931,
      "potassium": 3932,
      "excreted": 3933,
      "secreted": 3934,
      "swimming": 3935,
      "inherit": 3936,
      "illnesses": 3937,
      "landscape": 3938,
      "flashlights": 3939,
      "metabolic": 3940,
      "calcium": 3941,
      "here": 3942,
      "rising": 3943,
      "toxins": 3944,
      "removing": 3945,
      "thicker": 3946,
      "shells": 3947,
      "tectonics": 3948,
      "simply": 3949,
      "##ields": 3950,
      "staying": 3951,
      "introns": 3952,
      "undergo": 3953,
      "lasts": 3954,
      "lasers": 3955,
      "intensity": 3956,
      "migration": 3957,
      "homeostasis": 3958,
      "sympt": 3959,
      "pollutants": 3960,
      "beneficial": 3961,
      "oxidation": 3962,
      "bottlene": 3963,
      "estu": 3964,
      "boundaries": 3965,
      "uncontrolled": 3966,
      "inhal": 3967,
      "deoxygenated": 3968,
      "builds": 3969,
      "cracks": 3970,
      "nematoda": 3971,
      "dominant": 3972,
      "hibernate": 3973,
      "vesicles": 3974,
      "vesicle": 3975,
      "valley": 3976,
      "origin": 3977,
      "tsh": 3978,
      "viol": 3979,
      "emitted": 3980,
      "multiple": 3981,
      "filament": 3982,
      "jointed": 3983,
      "baby": 3984,
      "half": 3985,
      "tube": 3986,
      "woman": 3987,
      "preserved": 3988,
      "h2o": 3989,
      "older": 3990,
      "oncogenes": 3991,
      "particular": 3992,
      "caverns": 3993,
      "realize": 3994,
      "envelope": 3995,
      "flatworms": 3996,
      "compacted": 3997,
      "symmetry": 3998,
      "dropping": 3999,
      "nephrons": 4000,
      "crump": 4001,
      "pacific": 4002,
      "radial": 4003,
      "external": 4004,
      "suddenly": 4005,
      "carpool": 4006,
      "amniotic": 4007,
      "simplest": 4008,
      "replacing": 4009,
      "collapses": 4010,
      "himalayas": 4011,
      "symbol": 4012,
      "dolphins": 4013,
      "stationary": 4014,
      "standard": 4015,
      "aspect": 4016,
      "immunodeficiency": 4017,
      "webbed": 4018,
      "sinkholes": 4019,
      "sharpening": 4020,
      "sandstone": 4021,
      "wavelengths": 4022,
      "bambo": 4023,
      "garbage": 4024,
      "images": 4025,
      "kittens": 4026,
      "middle": 4027,
      "random": 4028,
      "touches": 4029,
      "aluminum": 4030,
      "polynucleot": 4031,
      "bottleneck": 4032,
      "ath": 4033,
      "aqu": 4034,
      "ba": 4035,
      "bed": 4036,
      "bic": 4037,
      "brom": 4038,
      "bival": 4039,
      "cas": 4040,
      "cuc": 4041,
      "cats": 4042,
      "etc": 4043,
      "far": 4044,
      "ful": 4045,
      "five": 4046,
      "fuse": 4047,
      "folds": 4048,
      "gol": 4049,
      "germs": 4050,
      "herm": 4051,
      "job": 4052,
      "kerat": 4053,
      "lav": 4054,
      "mal": 4055,
      "mul": 4056,
      "mask": 4057,
      "nile": 4058,
      "oys": 4059,
      "put": 4060,
      "pig": 4061,
      "pant": 4062,
      "past": 4063,
      "portion": 4064,
      "qual": 4065,
      "rab": 4066,
      "ranges": 4067,
      "sect": 4068,
      "tends": 4069,
      "upper": 4070,
      "wors": 4071,
      "##tain": 4072,
      "##iar": 4073,
      "##ict": 4074,
      "##cite": 4075,
      "##ught": 4076,
      "##be": 4077,
      "##bre": 4078,
      "##yotes": 4079,
      "##ester": 4080,
      "##reg": 4081,
      "##ank": 4082,
      "##ancing": 4083,
      "theropods": 4084,
      "##ality": 4085,
      "input": 4086,
      "##icated": 4087,
      "##icult": 4088,
      "##itis": 4089,
      "##usive": 4090,
      "##asion": 4091,
      "##uries": 4092,
      "##urance": 4093,
      "##unam": 4094,
      "cam": 4095,
      "really": 4096,
      "reaches": 4097,
      "beaches": 4098,
      "##idden": 4099,
      "prol": 4100,
      "##etes": 4101,
      "enh": 4102,
      "liver": 4103,
      "orch": 4104,
      "orgas": 4105,
      "##otrophic": 4106,
      "##ented": 4107,
      "##elled": 4108,
      "stro": 4109,
      "mach": 4110,
      "thin": 4111,
      "chick": 4112,
      "intell": 4113,
      "decl": 4114,
      "##umb": 4115,
      "##opods": 4116,
      "##apy": 4117,
      "##amins": 4118,
      "##ense": 4119,
      "flight": 4120,
      "coating": 4121,
      "coyotes": 4122,
      "##estial": 4123,
      "trh": 4124,
      "obs": 4125,
      "obtain": 4126,
      "lightning": 4127,
      "diab": 4128,
      "##ffic": 4129,
      "ships": 4130,
      "blow": 4131,
      "unicellular": 4132,
      "##igue": 4133,
      "planting": 4134,
      "##eph": 4135,
      "clay": 4136,
      "conserv": 4137,
      "prefer": 4138,
      "##ermis": 4139,
      "swamps": 4140,
      "##aceans": 4141,
      "solids": 4142,
      "solvents": 4143,
      "abdom": 4144,
      "acqu": 4145,
      "loosen": 4146,
      "biped": 4147,
      "generates": 4148,
      "meters": 4149,
      "##ifies": 4150,
      "amazing": 4151,
      "arm": 4152,
      "sensory": 4153,
      "acting": 4154,
      "drain": 4155,
      "drive": 4156,
      "difficult": 4157,
      "carbonate": 4158,
      "greater": 4159,
      "bree": 4160,
      "breast": 4161,
      "damages": 4162,
      "frag": 4163,
      "frame": 4164,
      "decreased": 4165,
      "propane": 4166,
      "decade": 4167,
      "fertilizers": 4168,
      "web": 4169,
      "weak": 4170,
      "basal": 4171,
      "basically": 4172,
      "##ocity": 4173,
      "transforms": 4174,
      "killed": 4175,
      "indicates": 4176,
      "fatigue": 4177,
      "scale": 4178,
      "appl": 4179,
      "quills": 4180,
      "rotting": 4181,
      "climates": 4182,
      "nucleic": 4183,
      "everyone": 4184,
      "vein": 4185,
      "transferred": 4186,
      "conducted": 4187,
      "defin": 4188,
      "deforest": 4189,
      "defense": 4190,
      "accid": 4191,
      "easier": 4192,
      "incub": 4193,
      "activated": 4194,
      "persist": 4195,
      "##ificant": 4196,
      "variations": 4197,
      "altered": 4198,
      "instance": 4199,
      "instinct": 4200,
      "continent": 4201,
      "ova": 4202,
      "nearly": 4203,
      "parasitic": 4204,
      "devast": 4205,
      "aerate": 4206,
      "finally": 4207,
      "calcite": 4208,
      "rises": 4209,
      "dehydrated": 4210,
      "whole": 4211,
      "crustaceans": 4212,
      "fewer": 4213,
      "disperse": 4214,
      "dispersed": 4215,
      "vitamins": 4216,
      "threatening": 4217,
      "subject": 4218,
      "damaging": 4219,
      "volcanoes": 4220,
      "signals": 4221,
      "significant": 4222,
      "heterotrophic": 4223,
      "pesticide": 4224,
      "microbial": 4225,
      "laser": 4226,
      "tapeworms": 4227,
      "interaction": 4228,
      "landfill": 4229,
      "benefits": 4230,
      "mosses": 4231,
      "pupils": 4232,
      "##itude": 4233,
      "orbiting": 4234,
      "trunk": 4235,
      "storage": 4236,
      "irradiating": 4237,
      "component": 4238,
      "accelerate": 4239,
      "penetration": 4240,
      "penetrating": 4241,
      "porcupines": 4242,
      "harms": 4243,
      "tsunam": 4244,
      "phosphol": 4245,
      "filaments": 4246,
      "since": 4247,
      "ultimately": 4248,
      "furnaces": 4249,
      "turtles": 4250,
      "chloride": 4251,
      "public": 4252,
      "tremors": 4253,
      "abundant": 4254,
      "embryo": 4255,
      "sandbars": 4256,
      "familiar": 4257,
      "celestial": 4258,
      "hunting": 4259,
      "aneur": 4260,
      "transmit": 4261,
      "interferes": 4262,
      "designed": 4263,
      "echidna": 4264,
      "edible": 4265,
      "kingdom": 4266,
      "rhiz": 4267,
      "venus": 4268,
      "vagina": 4269,
      "enables": 4270,
      "trigger": 4271,
      "essentially": 4272,
      "symptoms": 4273,
      "estuaries": 4274,
      "bromel": 4275,
      "cucum": 4276,
      "keratin": 4277,
      "oysters": 4278,
      "sections": 4279,
      "diabetes": 4280,
      "looseness": 4281,
      "bipedal": 4282,
      "deforestation": 4283,
      "40": 4284,
      "bes": 4285,
      "bond": 4286,
      "born": 4287,
      "cro": 4288,
      "cult": 4289,
      "cerv": 4290,
      "du": 4291,
      "der": 4292,
      "don": 4293,
      "drough": 4294,
      "dri": 4295,
      "dup": 4296,
      "dying": 4297,
      "emp": 4298,
      "emph": 4299,
      "fir": 4300,
      "fet": 4301,
      "fund": 4302,
      "farm": 4303,
      "fill": 4304,
      "fier": 4305,
      "flex": 4306,
      "favor": 4307,
      "gain": 4308,
      "gne": 4309,
      "hit": 4310,
      "hom": 4311,
      "ions": 4312,
      "ju": 4313,
      "jet": 4314,
      "kni": 4315,
      "later": 4316,
      "mos": 4317,
      "nose": 4318,
      "pal": 4319,
      "pack": 4320,
      "pond": 4321,
      "peng": 4322,
      "pair": 4323,
      "ra": 4324,
      "rates": 4325,
      "rice": 4326,
      "scul": 4327,
      "squid": 4328,
      "sac": 4329,
      "save": 4330,
      "saving": 4331,
      "tad": 4332,
      "vel": 4333,
      "vap": 4334,
      "vie": 4335,
      "won": 4336,
      "want": 4337,
      "xer": 4338,
      "##oy": 4339,
      "##tile": 4340,
      "##ho": 4341,
      "##hinct": 4342,
      "##eks": 4343,
      "##ron": 4344,
      "##rich": 4345,
      "##ria": 4346,
      "##sed": 4347,
      "##lant": 4348,
      "##lob": 4349,
      "##gles": 4350,
      "##io": 4351,
      "##ipp": 4352,
      "##iated": 4353,
      "##cs": 4354,
      "##ca": 4355,
      "##cury": 4356,
      "##ugs": 4357,
      "##uins": 4358,
      "##uits": 4359,
      "##bed": 4360,
      "##drop": 4361,
      "##mia": 4362,
      "##xes": 4363,
      "##kal": 4364,
      "##vious": 4365,
      "##atile": 4366,
      "##herent": 4367,
      "##ero": 4368,
      "##ino": 4369,
      "##anged": 4370,
      "##alk": 4371,
      "anal": 4372,
      "angi": 4373,
      "##rol": 4374,
      "init": 4375,
      "inner": 4376,
      "integr": 4377,
      "##enc": 4378,
      "##enn": 4379,
      "tool": 4380,
      "tooth": 4381,
      "toads": 4382,
      "toaster": 4383,
      "isot": 4384,
      "##cts": 4385,
      "##cturnal": 4386,
      "##itable": 4387,
      "##itoes": 4388,
      "##using": 4389,
      "##ashes": 4390,
      "##elt": 4391,
      "##eles": 4392,
      "##letes": 4393,
      "##urable": 4394,
      "forced": 4395,
      "##olocation": 4396,
      "##osomal": 4397,
      "##omm": 4398,
      "##omer": 4399,
      "capt": 4400,
      "##imum": 4401,
      "regen": 4402,
      "reads": 4403,
      "beef": 4404,
      "beets": 4405,
      "##idym": 4406,
      "##idence": 4407,
      "project": 4408,
      "##eters": 4409,
      "##ulth": 4410,
      "encl": 4411,
      "enable": 4412,
      "enrich": 4413,
      "lizards": 4414,
      "whether": 4415,
      "##enter": 4416,
      "##ention": 4417,
      "##ellar": 4418,
      "##uter": 4419,
      "##quitoes": 4420,
      "alkal": 4421,
      "sequ": 4422,
      "seism": 4423,
      "moose": 4424,
      "degrad": 4425,
      "deuter": 4426,
      "spore": 4427,
      "sports": 4428,
      "spinal": 4429,
      "sphinct": 4430,
      "##umes": 4431,
      "astr": 4432,
      "##atees": 4433,
      "##ystal": 4434,
      "##chins": 4435,
      "##amental": 4436,
      "##ensive": 4437,
      "flam": 4438,
      "flavor": 4439,
      "least": 4440,
      "next": 4441,
      "##ibits": 4442,
      "##ired": 4443,
      "content": 4444,
      "early": 4445,
      "reptile": 4446,
      "allerg": 4447,
      "alleles": 4448,
      "##adder": 4449,
      "suc": 4450,
      "suns": 4451,
      "##ffer": 4452,
      "disco": 4453,
      "disaster": 4454,
      "disapp": 4455,
      "ship": 4456,
      "shows": 4457,
      "shade": 4458,
      "shown": 4459,
      "shaking": 4460,
      "bladder": 4461,
      "united": 4462,
      "##rose": 4463,
      "##iads": 4464,
      "column": 4465,
      "speciation": 4466,
      "foxes": 4467,
      "prides": 4468,
      "prisms": 4469,
      "adulth": 4470,
      "##rioles": 4471,
      "mantle": 4472,
      "manatees": 4473,
      "held": 4474,
      "evidence": 4475,
      "##erating": 4476,
      "feces": 4477,
      "conversion": 4478,
      "##orses": 4479,
      "typical": 4480,
      "rainy": 4481,
      "raindrop": 4482,
      "becoming": 4483,
      "requirement": 4484,
      "requirements": 4485,
      "glac": 4486,
      "infects": 4487,
      "##ationship": 4488,
      "swamp": 4489,
      "treated": 4490,
      "log": 4491,
      "relative": 4492,
      "relationship": 4493,
      "keen": 4494,
      "viral": 4495,
      "grain": 4496,
      "##ored": 4497,
      "nothing": 4498,
      "##oked": 4499,
      "expl": 4500,
      "express": 4501,
      "creeks": 4502,
      "native": 4503,
      "##ifera": 4504,
      "##otherapy": 4505,
      "amer": 4506,
      "##bits": 4507,
      "muss": 4508,
      "harmed": 4509,
      "colder": 4510,
      "birch": 4511,
      "brings": 4512,
      "measures": 4513,
      "art": 4514,
      "word": 4515,
      "nocturnal": 4516,
      "firewor": 4517,
      "crystal": 4518,
      "massive": 4519,
      "smallpox": 4520,
      "attack": 4521,
      "percent": 4522,
      "##aced": 4523,
      "agent": 4524,
      "agric": 4525,
      "damming": 4526,
      "cooled": 4527,
      "fran": 4528,
      "sheds": 4529,
      "econom": 4530,
      "further": 4531,
      "completing": 4532,
      "pollinated": 4533,
      "spermat": 4534,
      "falling": 4535,
      "bases": 4536,
      "functioning": 4537,
      "community": 4538,
      "evaporated": 4539,
      "attractive": 4540,
      "bogs": 4541,
      "regular": 4542,
      "emits": 4543,
      "interest": 4544,
      "invasion": 4545,
      "traffic": 4546,
      "vibrates": 4547,
      "follicles": 4548,
      "destruct": 4549,
      "learns": 4550,
      "quart": 4551,
      "quant": 4552,
      "sandy": 4553,
      "veh": 4554,
      "limited": 4555,
      "feeders": 4556,
      "conducts": 4557,
      "motor": 4558,
      "studies": 4559,
      "contracts": 4560,
      "deficiency": 4561,
      "involve": 4562,
      "echolocation": 4563,
      "mercury": 4564,
      "autotrophs": 4565,
      "##untary": 4566,
      "accomp": 4567,
      "creature": 4568,
      "startled": 4569,
      "detecting": 4570,
      "stretc": 4571,
      "month": 4572,
      "##ophyte": 4573,
      "characterized": 4574,
      "balances": 4575,
      "lengths": 4576,
      "stimulate": 4577,
      "stimulating": 4578,
      "elm": 4579,
      "exercises": 4580,
      "antibody": 4581,
      "panels": 4582,
      "resource": 4583,
      "centrioles": 4584,
      "anything": 4585,
      "presence": 4586,
      "preserve": 4587,
      "lowest": 4588,
      "ovum": 4589,
      "resting": 4590,
      "arthropod": 4591,
      "influenced": 4592,
      "recycled": 4593,
      "recyclable": 4594,
      "appearance": 4595,
      "mineral": 4596,
      "removes": 4597,
      "##aft": 4598,
      "series": 4599,
      "construct": 4600,
      "constitu": 4601,
      "enzyme": 4602,
      "thrive": 4603,
      "threatened": 4604,
      "moderate": 4605,
      "diverse": 4606,
      "stronger": 4607,
      "strongest": 4608,
      "penis": 4609,
      "intrusive": 4610,
      "alternative": 4611,
      "urinary": 4612,
      "urchins": 4613,
      "membrane": 4614,
      "deliver": 4615,
      "faults": 4616,
      "medical": 4617,
      "mixt": 4618,
      "permeability": 4619,
      "oxidize": 4620,
      "estim": 4621,
      "airplane": 4622,
      "##agmites": 4623,
      "stalagmites": 4624,
      "splash": 4625,
      "resistant": 4626,
      "thunder": 4627,
      "openings": 4628,
      "dinosaur": 4629,
      "hibernation": 4630,
      "snail": 4631,
      "advancing": 4632,
      "acceleration": 4633,
      "connected": 4634,
      "experien": 4635,
      "looks": 4636,
      "concentrations": 4637,
      "babies": 4638,
      "existing": 4639,
      "cloudy": 4640,
      "translation": 4641,
      "depression": 4642,
      "fisher": 4643,
      "latitudes": 4644,
      "split": 4645,
      "swelling": 4646,
      "arranged": 4647,
      "preceded": 4648,
      "ultimate": 4649,
      "eroded": 4650,
      "milk": 4651,
      "meaning": 4652,
      "endospore": 4653,
      "endospores": 4654,
      "directions": 4655,
      "delta": 4656,
      "deltas": 4657,
      "epididym": 4658,
      "faulting": 4659,
      "target": 4660,
      "vaccination": 4661,
      "toasting": 4662,
      "altitudes": 4663,
      "sunburns": 4664,
      "display": 4665,
      "windmill": 4666,
      "accumulation": 4667,
      "assembled": 4668,
      "fairly": 4669,
      "garden": 4670,
      "pipes": 4671,
      "susp": 4672,
      "beech": 4673,
      "exchange": 4674,
      "shrubs": 4675,
      "distribution": 4676,
      "additional": 4677,
      "submarines": 4678,
      "firecracker": 4679,
      "guitar": 4680,
      "ideal": 4681,
      "ruler": 4682,
      "##rogens": 4683,
      "reaching": 4684,
      "stabilize": 4685,
      "springs": 4686,
      "unlike": 4687,
      "clothing": 4688,
      "phototropism": 4689,
      "instruments": 4690,
      "particularly": 4691,
      "carpooling": 4692,
      "bamboo": 4693,
      "athletes": 4694,
      "quality": 4695,
      "rabbits": 4696,
      "chicken": 4697,
      "conservation": 4698,
      "tsunamis": 4699,
      "phospholip": 4700,
      "aneurys": 4701,
      "bromeliads": 4702,
      "besides": 4703,
      "droughts": 4704,
      "fundamental": 4705,
      "fierce": 4706,
      "knife": 4707,
      "mosquitoes": 4708,
      "penguins": 4709,
      "tadp": 4710,
      "velocity": 4711,
      "vapors": 4712,
      "view": 4713,
      "xerophytes": 4714,
      "sphincter": 4715,
      "astronom": 4716,
      "discover": 4717,
      "adulthood": 4718,
      "raindrops": 4719,
      "fireworks": 4720,
      "agricult": 4721,
      "stretched": 4722,
      "'.": 4723,
      ").": 4724,
      "000": 4725,
      "10": 4726,
      "agen": 4727,
      "aud": 4728,
      "accur": 4729,
      "aids": 4730,
      "bent": 4731,
      "bay": 4732,
      "bands": 4733,
      "che": 4734,
      "cer": 4735,
      "cot": 4736,
      "city": 4737,
      "cels": 4738,
      "ceph": 4739,
      "dd": 4740,
      "did": 4741,
      "dru": 4742,
      "eup": 4743,
      "efficient": 4744,
      "frost": 4745,
      "felt": 4746,
      "fumes": 4747,
      "gel": 4748,
      "gill": 4749,
      "hund": 4750,
      "holl": 4751,
      "hind": 4752,
      "house": 4753,
      "hidden": 4754,
      "jun": 4755,
      "jup": 4756,
      "lion": 4757,
      "lays": 4758,
      "lamps": 4759,
      "muc": 4760,
      "na": 4761,
      "named": 4762,
      "opt": 4763,
      "pure": 4764,
      "pick": 4765,
      "pests": 4766,
      "powers": 4767,
      "rod": 4768,
      "ray": 4769,
      "san": 4770,
      "sap": 4771,
      "saves": 4772,
      "sci": 4773,
      "synt": 4774,
      "sizes": 4775,
      "tens": 4776,
      "table": 4777,
      "taking": 4778,
      "ure": 4779,
      "wat": 4780,
      "war": 4781,
      "wool": 4782,
      "yard": 4783,
      "zone": 4784,
      "zones": 4785,
      "zero": 4786,
      "##oa": 4787,
      "##ole": 4788,
      "##oir": 4789,
      "##over": 4790,
      "##och": 4791,
      "##occ": 4792,
      "##ta": 4793,
      "##tely": 4794,
      "##tty": 4795,
      "##hood": 4796,
      "##ey": 4797,
      "##ema": 4798,
      "##egrad": 4799,
      "##rate": 4800,
      "##ram": 4801,
      "##rared": 4802,
      "##sues": 4803,
      "##lished": 4804,
      "##gl": 4805,
      "##ground": 4806,
      "##gred": 4807,
      "##ius": 4808,
      "##iot": 4809,
      "##cern": 4810,
      "##uge": 4811,
      "##ubs": 4812,
      "##uable": 4813,
      "##ned": 4814,
      "##nom": 4815,
      "##fl": 4816,
      "##fow": 4817,
      "##dinary": 4818,
      "##adu": 4819,
      "##ycle": 4820,
      "##mas": 4821,
      "##more": 4822,
      "##pr": 4823,
      "##produ": 4824,
      "##pores": 4825,
      "##posure": 4826,
      "##ximum": 4827,
      "##ky": 4828,
      "##vation": 4829,
      "##vity": 4830,
      "##vest": 4831,
      "##zes": 4832,
      "##zard": 4833,
      "##ath": 4834,
      "##atives": 4835,
      "##iness": 4836,
      "##inates": 4837,
      "##inted": 4838,
      "##reds": 4839,
      "##ancy": 4840,
      "theory": 4841,
      "##ony": 4842,
      "##onal": 4843,
      "##aly": 4844,
      "##alopods": 4845,
      "anter": 4846,
      "##rod": 4847,
      "##roid": 4848,
      "##roch": 4849,
      "##orp": 4850,
      "inev": 4851,
      "inherent": 4852,
      "ingred": 4853,
      "issues": 4854,
      "##ctly": 4855,
      "##ctile": 4856,
      "##itate": 4857,
      "##ase": 4858,
      "androgens": 4859,
      "##isions": 4860,
      "##lev": 4861,
      "##lement": 4862,
      "##unch": 4863,
      "camer": 4864,
      "##imid": 4865,
      "reuse": 4866,
      "prost": 4867,
      "progress": 4868,
      "progr": 4869,
      "prokaryotic": 4870,
      "##ulates": 4871,
      "##ulism": 4872,
      "##ulsion": 4873,
      "ori": 4874,
      "ordinary": 4875,
      "pluck": 4876,
      "conif": 4877,
      "concern": 4878,
      "##otosynt": 4879,
      "hazard": 4880,
      "##enty": 4881,
      "##elly": 4882,
      "##utes": 4883,
      "##uted": 4884,
      "stones": 4885,
      "stands": 4886,
      "stages": 4887,
      "maximum": 4888,
      "think": 4889,
      "##mps": 4890,
      "chond": 4891,
      "seals": 4892,
      "sept": 4893,
      "intest": 4894,
      "intimid": 4895,
      "deal": 4896,
      "soy": 4897,
      "exception": 4898,
      "##ckles": 4899,
      "##iest": 4900,
      "##ysema": 4901,
      "##char": 4902,
      "##apes": 4903,
      "##aphro": 4904,
      "flies": 4905,
      "flamm": 4906,
      "bodied": 4907,
      "lee": 4908,
      "leu": 4909,
      "##ostomes": 4910,
      "tri": 4911,
      "tric": 4912,
      "trash": 4913,
      "trade": 4914,
      "never": 4915,
      "neither": 4916,
      "whose": 4917,
      "##keys": 4918,
      "chance": 4919,
      "contr": 4920,
      "lighting": 4921,
      "allig": 4922,
      "allowing": 4923,
      "##ppies": 4924,
      "meet": 4925,
      "sug": 4926,
      "card": 4927,
      "carrier": 4928,
      "impossible": 4929,
      "##ouses": 4930,
      "resid": 4931,
      "reserv": 4932,
      "resear": 4933,
      "disrupt": 4934,
      "heard": 4935,
      "shad": 4936,
      "shif": 4937,
      "shake": 4938,
      "rocky": 4939,
      "rockets": 4940,
      "blamed": 4941,
      "univer": 4942,
      "unst": 4943,
      "##gsten": 4944,
      "reproducing": 4945,
      "compr": 4946,
      "foot": 4947,
      "##akers": 4948,
      "princ": 4949,
      "##hemical": 4950,
      "adren": 4951,
      "##ept": 4952,
      "##rio": 4953,
      "##riers": 4954,
      "mang": 4955,
      "clos": 4956,
      "##acteria": 4957,
      "prep": 4958,
      "pregn": 4959,
      "pretty": 4960,
      "movements": 4961,
      "infrared": 4962,
      "abal": 4963,
      "acetic": 4964,
      "bikes": 4965,
      "particle": 4966,
      "bloodstream": 4967,
      "##oglob": 4968,
      "vertebr": 4969,
      "##iphy": 4970,
      "##astics": 4971,
      "gradu": 4972,
      "overhe": 4973,
      "overex": 4974,
      "overcome": 4975,
      "meter": 4976,
      "depth": 4977,
      "##iful": 4978,
      "amino": 4979,
      "##bite": 4980,
      "points": 4981,
      "salts": 4982,
      "brid": 4983,
      "brakes": 4984,
      "arch": 4985,
      "cancerous": 4986,
      "freckles": 4987,
      "crash": 4988,
      "crashes": 4989,
      "drawn": 4990,
      "driven": 4991,
      "positively": 4992,
      "##karyote": 4993,
      "perce": 4994,
      "perenn": 4995,
      "##ache": 4996,
      "deter": 4997,
      "##ptoc": 4998,
      "mutate": 4999,
      "fright": 5000,
      "fertile": 5001,
      "##loy": 5002,
      "lacking": 5003,
      "outcome": 5004,
      "propag": 5005,
      "proprio": 5006,
      "develops": 5007,
      "completely": 5008,
      "decades": 5009,
      "transporting": 5010,
      "healthier": 5011,
      "contained": 5012,
      "gametophyte": 5013,
      "endanger": 5014,
      "endurance": 5015,
      "##ourage": 5016,
      "infectious": 5017,
      "wets": 5018,
      "wearing": 5019,
      "weights": 5020,
      "wasted": 5021,
      "washed": 5022,
      "based": 5023,
      "microevolution": 5024,
      "locate": 5025,
      "interbre": 5026,
      "depositing": 5027,
      "killer": 5028,
      "record": 5029,
      "burst": 5030,
      "indicate": 5031,
      "suppress": 5032,
      "supplement": 5033,
      "afric": 5034,
      "scent": 5035,
      "scav": 5036,
      "scales": 5037,
      "insulated": 5038,
      "insulating": 5039,
      "insulators": 5040,
      "applying": 5041,
      "quite": 5042,
      "resulting": 5043,
      "##phants": 5044,
      "##photosynt": 5045,
      "##copes": 5046,
      "combined": 5047,
      "combination": 5048,
      "##ignant": 5049,
      "everything": 5050,
      "radiators": 5051,
      "consuming": 5052,
      "majority": 5053,
      "hemoglob": 5054,
      "conductivity": 5055,
      "students": 5056,
      "contracted": 5057,
      "contracting": 5058,
      "melts": 5059,
      "##etric": 5060,
      "strings": 5061,
      "strands": 5062,
      "greenhouses": 5063,
      "currently": 5064,
      "circulate": 5065,
      "accord": 5066,
      "easy": 5067,
      "happening": 5068,
      "illum": 5069,
      "stimulation": 5070,
      "traveling": 5071,
      "streptoc": 5072,
      "circuits": 5073,
      "antibiot": 5074,
      "monkeys": 5075,
      "alterations": 5076,
      "polym": 5077,
      "nitrogenous": 5078,
      "mitoch": 5079,
      "nonphotosynt": 5080,
      "center": 5081,
      "phenom": 5082,
      "potat": 5083,
      "drying": 5084,
      "decompos": 5085,
      "decomposing": 5086,
      "biodegrad": 5087,
      "mollusk": 5088,
      "oven": 5089,
      "nearby": 5090,
      "predom": 5091,
      "predict": 5092,
      "parasite": 5093,
      "wetland": 5094,
      "device": 5095,
      "physi": 5096,
      "echinoids": 5097,
      "elephants": 5098,
      "combustible": 5099,
      "severely": 5100,
      "replace": 5101,
      "colony": 5102,
      "regulates": 5103,
      "maintained": 5104,
      "##trans": 5105,
      "beneath": 5106,
      "calm": 5107,
      "calories": 5108,
      "hered": 5109,
      "removal": 5110,
      "perman": 5111,
      "spoils": 5112,
      "shortages": 5113,
      "cactuses": 5114,
      "puppies": 5115,
      "serves": 5116,
      "##liest": 5117,
      "##ceptive": 5118,
      "generators": 5119,
      "construction": 5120,
      "shellfish": 5121,
      "daught": 5122,
      "oxides": 5123,
      "tungsten": 5124,
      "vitamin": 5125,
      "float": 5126,
      "botulism": 5127,
      "uncom": 5128,
      "pattern": 5129,
      "encas": 5130,
      "porifera": 5131,
      "widely": 5132,
      "injuries": 5133,
      "spacecr": 5134,
      "contamination": 5135,
      "epiphy": 5136,
      "maglev": 5137,
      "polluted": 5138,
      "clearly": 5139,
      "benefit": 5140,
      "spoiled": 5141,
      "spoilage": 5142,
      "cigars": 5143,
      "drinking": 5144,
      "bush": 5145,
      "drops": 5146,
      "droplets": 5147,
      "carcinogen": 5148,
      "pumped": 5149,
      "barrel": 5150,
      "factor": 5151,
      "factors": 5152,
      "fighting": 5153,
      "houses": 5154,
      "items": 5155,
      "scientific": 5156,
      "beaut": 5157,
      "advanced": 5158,
      "recognized": 5159,
      "contributor": 5160,
      "squirts": 5161,
      "semen": 5162,
      "assemble": 5163,
      "phosph": 5164,
      "nucleotide": 5165,
      "elsewhere": 5166,
      "multiply": 5167,
      "concentration": 5168,
      "concentrated": 5169,
      "ingestion": 5170,
      "shares": 5171,
      "translated": 5172,
      "revolves": 5173,
      "fishing": 5174,
      "h20": 5175,
      "nesting": 5176,
      "telomer": 5177,
      "probably": 5178,
      "exhibit": 5179,
      "assist": 5180,
      "disturbance": 5181,
      "precedes": 5182,
      "described": 5183,
      "eras": 5184,
      "turbine": 5185,
      "sticks": 5186,
      "chronic": 5187,
      "compressed": 5188,
      "skeleton": 5189,
      "skeletons": 5190,
      "pathogenic": 5191,
      "epidermis": 5192,
      "altitude": 5193,
      "asteroid": 5194,
      "asteroids": 5195,
      "manufacture": 5196,
      "windmills": 5197,
      "eliminates": 5198,
      "linear": 5199,
      "north": 5200,
      "said": 5201,
      "safety": 5202,
      "toler": 5203,
      "tolerate": 5204,
      "consequence": 5205,
      "herbivores": 5206,
      "cranberry": 5207,
      "cranberries": 5208,
      "identify": 5209,
      "bilater": 5210,
      "tulips": 5211,
      "tigers": 5212,
      "##fortable": 5213,
      "success": 5214,
      "##rupts": 5215,
      "crystals": 5216,
      "emotion": 5217,
      "incineration": 5218,
      "violent": 5219,
      "crumple": 5220,
      "polynucleotide": 5221,
      "bags": 5222,
      "golgi": 5223,
      "hermaphro": 5224,
      "lava": 5225,
      "malignant": 5226,
      "panting": 5227,
      "enhance": 5228,
      "orchids": 5229,
      "orgasm": 5230,
      "stroke": 5231,
      "machines": 5232,
      "##umbling": 5233,
      "abdomen": 5234,
      "definition": 5235,
      "devastating": 5236,
      "rhizob": 5237,
      "cucumbers": 5238,
      "cervical": 5239,
      "dupl": 5240,
      "employ": 5241,
      "emphysema": 5242,
      "flexibility": 5243,
      "favorite": 5244,
      "gneiss": 5245,
      "lateral": 5246,
      "pairs": 5247,
      "seismic": 5248,
      "sucrose": 5249,
      "logging": 5250,
      "furthermore": 5251,
      "destructive": 5252,
      "quartz": 5253,
      "quantities": 5254,
      "mixture": 5255,
      "epididymes": 5256,
      "suspended": 5257,
      "aneurysm": 5258,
      "tadpoles": 5259,
      "viewed": 5260,
      "agriculture": 5261,
      "agents": 5262,
      "celsius": 5263,
      "cephalopods": 5264,
      "ddt": 5265,
      "frostbite": 5266,
      "hundreds": 5267,
      "hollow": 5268,
      "jupiter": 5269,
      "nacl": 5270,
      "synthesis": 5271,
      "##fowl": 5272,
      "anterior": 5273,
      "inevitable": 5274,
      "ingredients": 5275,
      "prostate": 5276,
      "chondro": 5277,
      "flammable": 5278,
      "reservoir": 5279,
      "unstable": 5280,
      "princip": 5281,
      "adrenal": 5282,
      "overexposure": 5283,
      "perennial": 5284,
      "endangered": 5285,
      "interbreeding": 5286,
      "hemoglobin": 5287,
      "according": 5288,
      "streptococc": 5289,
      "antibiotics": 5290,
      "mitochond": 5291,
      "nonphotosynthetic": 5292,
      "phenomen": 5293,
      "biodegradable": 5294,
      "daughter": 5295,
      "spacecraft": 5296,
      "epiphytes": 5297,
      "telomeres": 5298,
      "hermaphrod": 5299,
      "19": 5300,
      "12": 5301,
      "100": 5302,
      "25": 5303,
      "32": 5304,
      "??": 5305,
      "ahe": 5306,
      "aves": 5307,
      "aph": 5308,
      "bis": 5309,
      "bund": 5310,
      "bass": 5311,
      "bite": 5312,
      "bare": 5313,
      "binary": 5314,
      "cate": 5315,
      "cuts": 5316,
      "dar": 5317,
      "dim": 5318,
      "drom": 5319,
      "dend": 5320,
      "dried": 5321,
      "durable": 5322,
      "eight": 5323,
      "eff": 5324,
      "eag": 5325,
      "fed": 5326,
      "fing": 5327,
      "fas": 5328,
      "fle": 5329,
      "fol": 5330,
      "fut": 5331,
      "fine": 5332,
      "fig": 5333,
      "fiss": 5334,
      "fibr": 5335,
      "fence": 5336,
      "fields": 5337,
      "gone": 5338,
      "gink": 5339,
      "hp": 5340,
      "hen": 5341,
      "hic": 5342,
      "hide": 5343,
      "hist": 5344,
      "horses": 5345,
      "huge": 5346,
      "jer": 5347,
      "jaw": 5348,
      "jelly": 5349,
      "ko": 5350,
      "kept": 5351,
      "lu": 5352,
      "lon": 5353,
      "lith": 5354,
      "lining": 5355,
      "liter": 5356,
      "mis": 5357,
      "marm": 5358,
      "mort": 5359,
      "mild": 5360,
      "miss": 5361,
      "mother": 5362,
      "mosa": 5363,
      "nic": 5364,
      "none": 5365,
      "ot": 5366,
      "os": 5367,
      "od": 5368,
      "oaks": 5369,
      "py": 5370,
      "pel": 5371,
      "pag": 5372,
      "poster": 5373,
      "ring": 5374,
      "right": 5375,
      "roll": 5376,
      "roses": 5377,
      "sent": 5378,
      "sure": 5379,
      "sad": 5380,
      "syn": 5381,
      "site": 5382,
      "serve": 5383,
      "self": 5384,
      "sitting": 5385,
      "situ": 5386,
      "ta": 5387,
      "tim": 5388,
      "tell": 5389,
      "tact": 5390,
      "tong": 5391,
      "terms": 5392,
      "ut": 5393,
      "vo": 5394,
      "vig": 5395,
      "vert": 5396,
      "voc": 5397,
      "void": 5398,
      "venter": 5399,
      "wound": 5400,
      "wester": 5401,
      "zinc": 5402,
      "##ov": 5403,
      "##oz": 5404,
      "##the": 5405,
      "##tage": 5406,
      "##tub": 5407,
      "##tosis": 5408,
      "##tock": 5409,
      "##hand": 5410,
      "##rin": 5411,
      "##ses": 5412,
      "##line": 5413,
      "##lass": 5414,
      "##go": 5415,
      "##iw": 5416,
      "##iing": 5417,
      "##ias": 5418,
      "##iens": 5419,
      "##igen": 5420,
      "##ief": 5421,
      "##car": 5422,
      "##cis": 5423,
      "##cod": 5424,
      "##carb": 5425,
      "##capes": 5426,
      "##uv": 5427,
      "##uro": 5428,
      "##uis": 5429,
      "##uff": 5430,
      "##nels": 5431,
      "##nivores": 5432,
      "##ban": 5433,
      "##bing": 5434,
      "##bir": 5435,
      "##bill": 5436,
      "##born": 5437,
      "##do": 5438,
      "##acles": 5439,
      "##yle": 5440,
      "##mons": 5441,
      "##mitt": 5442,
      "##pes": 5443,
      "##xual": 5444,
      "##ws": 5445,
      "##win": 5446,
      "##wks": 5447,
      "##16": 5448,
      "##atin": 5449,
      "##atus": 5450,
      "##esher": 5451,
      "##eshy": 5452,
      "##ery": 5453,
      "##erates": 5454,
      "##erequ": 5455,
      "##inis": 5456,
      "##inated": 5457,
      "##rets": 5458,
      "##anies": 5459,
      "##oned": 5460,
      "##aled": 5461,
      "ang": 5462,
      "##rots": 5463,
      "##rounds": 5464,
      "##orus": 5465,
      "##ords": 5466,
      "##orate": 5467,
      "##orns": 5468,
      "inert": 5469,
      "invent": 5470,
      "##edi": 5471,
      "toy": 5472,
      "toes": 5473,
      "islands": 5474,
      "##arium": 5475,
      "##ctor": 5476,
      "##icul": 5477,
      "##itus": 5478,
      "##itual": 5479,
      "##usts": 5480,
      "##ases": 5481,
      "andre": 5482,
      "##isy": 5483,
      "##isite": 5484,
      "##isible": 5485,
      "doub": 5486,
      "cany": 5487,
      "forth": 5488,
      "forward": 5489,
      "##ols": 5490,
      "##olith": 5491,
      "##olate": 5492,
      "##osols": 5493,
      "##ometers": 5494,
      "care": 5495,
      "cabb": 5496,
      "##imeter": 5497,
      "beak": 5498,
      "beams": 5499,
      "##eth": 5500,
      "##ula": 5501,
      "ends": 5502,
      "enorm": 5503,
      "orange": 5504,
      "placed": 5505,
      "plastics": 5506,
      "byprodu": 5507,
      "conf": 5508,
      "concl": 5509,
      "congest": 5510,
      "convent": 5511,
      "##oties": 5512,
      "##otine": 5513,
      "##othed": 5514,
      "##tead": 5515,
      "hay": 5516,
      "hawks": 5517,
      "wheels": 5518,
      "##uthern": 5519,
      "stays": 5520,
      "stuff": 5521,
      "map": 5522,
      "waterways": 5523,
      "##allus": 5524,
      "##ques": 5525,
      "##acts": 5526,
      "##erglass": 5527,
      "thou": 5528,
      "chill": 5529,
      "chief": 5530,
      "alb": 5531,
      "alters": 5532,
      "sees": 5533,
      "intent": 5534,
      "interst": 5535,
      "deer": 5536,
      "demons": 5537,
      "spin": 5538,
      "spir": 5539,
      "spru": 5540,
      "spines": 5541,
      "spots": 5542,
      "sperms": 5543,
      "socc": 5544,
      "south": 5545,
      "soaks": 5546,
      "southern": 5547,
      "exact": 5548,
      "examin": 5549,
      "##opes": 5550,
      "##opards": 5551,
      "##optosis": 5552,
      "asth": 5553,
      "##gevity": 5554,
      "##ching": 5555,
      "##ivation": 5556,
      "##ivorous": 5557,
      "##ami": 5558,
      "##amy": 5559,
      "##amic": 5560,
      "##amines": 5561,
      "##ameter": 5562,
      "##ensions": 5563,
      "fleshy": 5564,
      "##tered": 5565,
      "##aved": 5566,
      "role": 5567,
      "roads": 5568,
      "roof": 5569,
      "core": 5570,
      "coated": 5571,
      "coils": 5572,
      "lean": 5573,
      "lets": 5574,
      "leopards": 5575,
      "##ested": 5576,
      "trains": 5577,
      "tracks": 5578,
      "neuro": 5579,
      "##kets": 5580,
      "obvious": 5581,
      "gender": 5582,
      "somatic": 5583,
      "earliest": 5584,
      "alluv": 5585,
      "##ado": 5586,
      "##ading": 5587,
      "diurnal": 5588,
      "diameter": 5589,
      "sufficient": 5590,
      "##illa": 5591,
      "instead": 5592,
      "carrots": 5593,
      "surrounds": 5594,
      "disc": 5595,
      "disin": 5596,
      "disint": 5597,
      "discus": 5598,
      "disrupts": 5599,
      "##izing": 5600,
      "hearing": 5601,
      "show": 5602,
      "shine": 5603,
      "shore": 5604,
      "shale": 5605,
      "shines": 5606,
      "shots": 5607,
      "shock": 5608,
      "sharing": 5609,
      "rocket": 5610,
      "blown": 5611,
      "blades": 5612,
      "blank": 5613,
      "unr": 5614,
      "unable": 5615,
      "##igid": 5616,
      "##igent": 5617,
      "coli": 5618,
      "colored": 5619,
      "compar": 5620,
      "foil": 5621,
      "##rophy": 5622,
      "pract": 5623,
      "prerequ": 5624,
      "adequ": 5625,
      "##eps": 5626,
      "##epods": 5627,
      "##rict": 5628,
      "chemically": 5629,
      "chemotherapy": 5630,
      "manure": 5631,
      "clust": 5632,
      "clients": 5633,
      "warmed": 5634,
      "occurring": 5635,
      "preci": 5636,
      "preval": 5637,
      "humming": 5638,
      "gast": 5639,
      "##istic": 5640,
      "##istmas": 5641,
      "impacts": 5642,
      "##aceous": 5643,
      "commut": 5644,
      "accept": 5645,
      "lots": 5646,
      "lobs": 5647,
      "oxygenated": 5648,
      "biome": 5649,
      "##ograp": 5650,
      "verbal": 5651,
      "##ipe": 5652,
      "##ipher": 5653,
      "virt": 5654,
      "grape": 5655,
      "overall": 5656,
      "divisions": 5657,
      "upward": 5658,
      "##orecept": 5659,
      "##hyroid": 5660,
      "willow": 5661,
      "absol": 5662,
      "creation": 5663,
      "##iform": 5664,
      "##iferate": 5665,
      "##osperm": 5666,
      "##osphere": 5667,
      "poor": 5668,
      "pole": 5669,
      "pointed": 5670,
      "salmon": 5671,
      "cyan": 5672,
      "##agon": 5673,
      "##aged": 5674,
      "bry": 5675,
      "bran": 5676,
      "brca": 5677,
      "arid": 5678,
      "arise": 5679,
      "sensors": 5680,
      "skinned": 5681,
      "worn": 5682,
      "actual": 5683,
      "nour": 5684,
      "included": 5685,
      "freely": 5686,
      "drives": 5687,
      "hormonal": 5688,
      "redness": 5689,
      "diffusion": 5690,
      "transports": 5691,
      "smallest": 5692,
      "##oba": 5693,
      "attrib": 5694,
      "perception": 5695,
      "peripher": 5696,
      "survives": 5697,
      "detects": 5698,
      "detail": 5699,
      "agree": 5700,
      "##ptures": 5701,
      "bull": 5702,
      "mutated": 5703,
      "corp": 5704,
      "slugs": 5705,
      "extensive": 5706,
      "##berry": 5707,
      "games": 5708,
      "immob": 5709,
      "immedi": 5710,
      "furry": 5711,
      "outer": 5712,
      "propel": 5713,
      "propell": 5714,
      "developing": 5715,
      "##endous": 5716,
      "##endages": 5717,
      "fertilizes": 5718,
      "salty": 5719,
      "subsection": 5720,
      "##isexual": 5721,
      "differently": 5722,
      "wasps": 5723,
      "##oxes": 5724,
      "remark": 5725,
      "basil": 5726,
      "##ocyst": 5727,
      "woods": 5728,
      "acidic": 5729,
      "microtub": 5730,
      "locom": 5731,
      "##orests": 5732,
      "booties": 5733,
      "region": 5734,
      "regulation": 5735,
      "regard": 5736,
      "mechanorecept": 5737,
      "##aeosa": 5738,
      "reacting": 5739,
      "reactive": 5740,
      "passing": 5741,
      "emission": 5742,
      "embed": 5743,
      "hairs": 5744,
      "interior": 5745,
      "invisible": 5746,
      "seems": 5747,
      "traces": 5748,
      "thereby": 5749,
      "recover": 5750,
      "burial": 5751,
      "burried": 5752,
      "follows": 5753,
      "hybr": 5754,
      "primitive": 5755,
      "scr": 5756,
      "paraly": 5757,
      "apple": 5758,
      "appli": 5759,
      "appendages": 5760,
      "evergre": 5761,
      "rotates": 5762,
      "nuclei": 5763,
      "eukaryotic": 5764,
      "combines": 5765,
      "everyday": 5766,
      "radiant": 5767,
      "irreg": 5768,
      "##itional": 5769,
      "member": 5770,
      "studied": 5771,
      "secondhand": 5772,
      "melan": 5773,
      "starch": 5774,
      "define": 5775,
      "involving": 5776,
      "involuntary": 5777,
      "##coat": 5778,
      "##etrical": 5779,
      "strange": 5780,
      "reflection": 5781,
      "reflective": 5782,
      "volatile": 5783,
      "dissip": 5784,
      "background": 5785,
      "flukes": 5786,
      "reduction": 5787,
      "accomm": 5788,
      "ease": 5789,
      "easter": 5790,
      "terrif": 5791,
      "fiberglass": 5792,
      "seawater": 5793,
      "##ificial": 5794,
      "determining": 5795,
      "wells": 5796,
      "patients": 5797,
      "colorless": 5798,
      "colorado": 5799,
      "adaptable": 5800,
      "stimulated": 5801,
      "elastic": 5802,
      "paints": 5803,
      "covers": 5804,
      "covering": 5805,
      "poisons": 5806,
      "goats": 5807,
      "minim": 5808,
      "##notyp": 5809,
      "refracting": 5810,
      "phenotyp": 5811,
      "papill": 5812,
      "excrete": 5813,
      "continu": 5814,
      "decomposes": 5815,
      "geologists": 5816,
      "magnify": 5817,
      "classification": 5818,
      "amphibian": 5819,
      "molluscs": 5820,
      "copepods": 5821,
      "oval": 5822,
      "##ieve": 5823,
      "##ieved": 5824,
      "restful": 5825,
      "##letic": 5826,
      "nearest": 5827,
      "predatory": 5828,
      "touching": 5829,
      "separates": 5830,
      "separated": 5831,
      "zygotes": 5832,
      "carrying": 5833,
      "regulating": 5834,
      "considerably": 5835,
      "ignited": 5836,
      "relaxes": 5837,
      "backbones": 5838,
      "herpes": 5839,
      "dehydrating": 5840,
      "electronic": 5841,
      "consisting": 5842,
      "expanding": 5843,
      "thickness": 5844,
      "collector": 5845,
      "collection": 5846,
      "puts": 5847,
      "return": 5848,
      "reticul": 5849,
      "crossed": 5850,
      "thresher": 5851,
      "equal": 5852,
      "equipp": 5853,
      "tunnels": 5854,
      "sweets": 5855,
      "operating": 5856,
      "silt": 5857,
      "silica": 5858,
      "signal": 5859,
      "lipid": 5860,
      "##igration": 5861,
      "fourth": 5862,
      "desertification": 5863,
      "fastest": 5864,
      "encourage": 5865,
      "intrusion": 5866,
      "roundworm": 5867,
      "rainforests": 5868,
      "landslide": 5869,
      "undergoes": 5870,
      "golden": 5871,
      "intensified": 5872,
      "excit": 5873,
      "excites": 5874,
      "headaches": 5875,
      "shapes": 5876,
      "filters": 5877,
      "folded": 5878,
      "joins": 5879,
      "messages": 5880,
      "marks": 5881,
      "migrant": 5882,
      "tested": 5883,
      "testing": 5884,
      "testicles": 5885,
      "necessity": 5886,
      "frequency": 5887,
      "supportive": 5888,
      "imbal": 5889,
      "medium": 5890,
      "mediated": 5891,
      "mixes": 5892,
      "square": 5893,
      "connection": 5894,
      "pollutes": 5895,
      "pollutant": 5896,
      "million": 5897,
      "##cups": 5898,
      "spreading": 5899,
      "refrigeration": 5900,
      "distraction": 5901,
      "automobiles": 5902,
      "lymphoma": 5903,
      "badge": 5904,
      "tails": 5905,
      "inhibit": 5906,
      "promotes": 5907,
      "extends": 5908,
      "cracking": 5909,
      "drinkable": 5910,
      "honeybe": 5911,
      "apoptosis": 5912,
      "wait": 5913,
      "##hrates": 5914,
      "domestic": 5915,
      "dominate": 5916,
      "revolution": 5917,
      "entity": 5918,
      "dependent": 5919,
      "hibernating": 5920,
      "barrier": 5921,
      "barriers": 5922,
      "balls": 5923,
      "duckbill": 5924,
      "kicks": 5925,
      "values": 5926,
      "valuable": 5927,
      "##bbles": 5928,
      "originate": 5929,
      "origami": 5930,
      "advant": 5931,
      "descend": 5932,
      "accelerates": 5933,
      "connective": 5934,
      "adjusting": 5935,
      "kidney": 5936,
      "harvest": 5937,
      "marshes": 5938,
      "neuron": 5939,
      "phosphat": 5940,
      "controlling": 5941,
      "refrigerators": 5942,
      "halos": 5943,
      "satell": 5944,
      "sinuses": 5945,
      "women": 5946,
      "legged": 5947,
      "disastrous": 5948,
      "depresses": 5949,
      "preservatives": 5950,
      "##oplasmic": 5951,
      "actions": 5952,
      "lenses": 5953,
      "soda": 5954,
      "##board": 5955,
      "probable": 5956,
      "probability": 5957,
      "oncogenic": 5958,
      "exhibits": 5959,
      "surrounded": 5960,
      "computer": 5961,
      "annelid": 5962,
      "entirely": 5963,
      "describe": 5964,
      "describes": 5965,
      "furnace": 5966,
      "milde": 5967,
      "treatment": 5968,
      "turbines": 5969,
      "cavern": 5970,
      "stringed": 5971,
      "christmas": 5972,
      "chlorine": 5973,
      "compaction": 5974,
      "compressional": 5975,
      "cyclone": 5976,
      "nephron": 5977,
      "girth": 5978,
      "girls": 5979,
      "##woods": 5980,
      "toasters": 5981,
      "##ammed": 5982,
      "displays": 5983,
      "manufactured": 5984,
      "tremendous": 5985,
      "extraord": 5986,
      "embryos": 5987,
      "sandbar": 5988,
      "eliminate": 5989,
      "families": 5990,
      "oldest": 5991,
      "operate": 5992,
      "pulp": 5993,
      "rarely": 5994,
      "suscept": 5995,
      "##work": 5996,
      "trained": 5997,
      "training": 5998,
      "shrub": 5999,
      "consequences": 6000,
      "constantly": 6001,
      "submarine": 6002,
      "firecrackers": 6003,
      "biloba": 6004,
      "bounces": 6005,
      "germination": 6006,
      "rattles": 6007,
      "ratio": 6008,
      "tulip": 6009,
      "tiger": 6010,
      "induced": 6011,
      "represented": 6012,
      "succul": 6013,
      "focussed": 6014,
      "crystall": 6015,
      "scarce": 6016,
      "stratosphere": 6017,
      "inheritance": 6018,
      "inhaled": 6019,
      "inhalation": 6020,
      "violence": 6021,
      "polynucleotides": 6022,
      "aquarium": 6023,
      "beds": 6024,
      "bivalves": 6025,
      "cases": 6026,
      "fully": 6027,
      "mulberry": 6028,
      "pigs": 6029,
      "proliferate": 6030,
      "intelligen": 6031,
      "intelligent": 6032,
      "observ": 6033,
      "preferred": 6034,
      "acquired": 6035,
      "breeze": 6036,
      "breezes": 6037,
      "applied": 6038,
      "application": 6039,
      "accidents": 6040,
      "incubation": 6041,
      "persistent": 6042,
      "instincts": 6043,
      "crocod": 6044,
      "fetus": 6045,
      "juices": 6046,
      "sculptures": 6047,
      "squids": 6048,
      "angiosperm": 6049,
      "initial": 6050,
      "integrity": 6051,
      "##encies": 6052,
      "isotope": 6053,
      "capture": 6054,
      "regeneration": 6055,
      "sequence": 6056,
      "degradation": 6057,
      "deuterostomes": 6058,
      "flames": 6059,
      "allergies": 6060,
      "relationships": 6061,
      "explode": 6062,
      "americ": 6063,
      "mussels": 6064,
      "artificial": 6065,
      "francis": 6066,
      "spermatoz": 6067,
      "interesting": 6068,
      "vehicle": 6069,
      "months": 6070,
      "constituents": 6071,
      "experienced": 6072,
      "phospholipids": 6073,
      "audible": 6074,
      "check": 6075,
      "ceramic": 6076,
      "euphrates": 6077,
      "gelatin": 6078,
      "mucus": 6079,
      "science": 6080,
      "camera": 6081,
      "programmed": 6082,
      "plucking": 6083,
      "intestine": 6084,
      "leeches": 6085,
      "leuke": 6086,
      "alligators": 6087,
      "cardboard": 6088,
      "research": 6089,
      "shadow": 6090,
      "comprised": 6091,
      "prepared": 6092,
      "abalone": 6093,
      "vertebrae": 6094,
      "bridges": 6095,
      "perceived": 6096,
      "recorded": 6097,
      "illuminate": 6098,
      "potatoes": 6099,
      "decomposers": 6100,
      "predominant": 6101,
      "##transmitt": 6102,
      "heredity": 6103,
      "permanent": 6104,
      "encased": 6105,
      "beautiful": 6106,
      "phosphorus": 6107,
      "assisted": 6108,
      "tolerant": 6109,
      "bilaterally": 6110,
      "successful": 6111,
      "reservoirs": 6112,
      "adrenaline": 6113,
      "streptococcus": 6114,
      "mitochondria": 6115,
      "hermaphrodites": 6116,
      "ahead": 6117,
      "bundles": 6118,
      "categ": 6119,
      "dromaeosa": 6120,
      "future": 6121,
      "ginkgo": 6122,
      "hpv": 6123,
      "hiccups": 6124,
      "jerky": 6125,
      "koal": 6126,
      "longevity": 6127,
      "marmots": 6128,
      "mortality": 6129,
      "missing": 6130,
      "mosaic": 6131,
      "nicotine": 6132,
      "otters": 6133,
      "odor": 6134,
      "pagers": 6135,
      "posterior": 6136,
      "roller": 6137,
      "tactile": 6138,
      "utilize": 6139,
      "vigorous": 6140,
      "vocal": 6141,
      "##birds": 6142,
      "invented": 6143,
      "enormous": 6144,
      "congestion": 6145,
      "conventional": 6146,
      "thought": 6147,
      "interstellar": 6148,
      "demonstr": 6149,
      "spruce": 6150,
      "soccer": 6151,
      "southw": 6152,
      "neurotransmitt": 6153,
      "alluvial": 6154,
      "disintigration": 6155,
      "blanket": 6156,
      "prerequisite": 6157,
      "adequate": 6158,
      "clusters": 6159,
      "precious": 6160,
      "prevalent": 6161,
      "hummingbirds": 6162,
      "brca2": 6163,
      "microtubules": 6164,
      "embedded": 6165,
      "recovery": 6166,
      "irregular": 6167,
      "accommod": 6168,
      "terrific": 6169,
      "magnifying": 6170,
      "reticulum": 6171,
      "equipped": 6172,
      "imbalance": 6173,
      "honeybees": 6174,
      "intelligence": 6175,
      "crocodiles": 6176,
      "francisco": 6177,
      "spermatozoa": 6178,
      "gelatinous": 6179,
      "dromaeosaurs": 6180,
      "neurotransmitters": 6181,
      ".?": 6182,
      ".,": 6183,
      "18": 6184,
      "13": 6185,
      "74": 6186,
      "90": 6187,
      "_can": 6188,
      "aim": 6189,
      "ach": 6190,
      "ages": 6191,
      "aub": 6192,
      "affer": 6193,
      "aerating": 6194,
      "ban": 6195,
      "bor": 6196,
      "ble": 6197,
      "bow": 6198,
      "bell": 6199,
      "bob": 6200,
      "bays": 6201,
      "boxes": 6202,
      "cn": 6203,
      "cow": 6204,
      "cyp": 6205,
      "cease": 6206,
      "cows": 6207,
      "cash": 6208,
      "coded": 6209,
      "dav": 6210,
      "dill": 6211,
      "dust": 6212,
      "dermis": 6213,
      "ere": 6214,
      "eins": 6215,
      "ede": 6216,
      "era": 6217,
      "erup": 6218,
      "fant": 6219,
      "fract": 6220,
      "fins": 6221,
      "fac": 6222,
      "fuses": 6223,
      "fusing": 6224,
      "gi": 6225,
      "ga": 6226,
      "gor": 6227,
      "god": 6228,
      "gun": 6229,
      "gall": 6230,
      "gate": 6231,
      "gri": 6232,
      "gong": 6233,
      "gog": 6234,
      "garn": 6235,
      "gasses": 6236,
      "gums": 6237,
      "hars": 6238,
      "hosp": 6239,
      "holds": 6240,
      "hiding": 6241,
      "il": 6242,
      "ig": 6243,
      "iow": 6244,
      "je": 6245,
      "jers": 6246,
      "jou": 6247,
      "jord": 6248,
      "kn": 6249,
      "kw": 6250,
      "kit": 6251,
      "lan": 6252,
      "lod": 6253,
      "lum": 6254,
      "late": 6255,
      "lab": 6256,
      "lamp": 6257,
      "lup": 6258,
      "lines": 6259,
      "law": 6260,
      "lang": 6261,
      "losing": 6262,
      "mol": 6263,
      "mich": 6264,
      "mart": 6265,
      "mines": 6266,
      "mening": 6267,
      "master": 6268,
      "mental": 6269,
      "nan": 6270,
      "nav": 6271,
      "nights": 6272,
      "nuis": 6273,
      "o2": 6274,
      "oct": 6275,
      "ocar": 6276,
      "pi": 6277,
      "p5": 6278,
      "pace": 6279,
      "park": 6280,
      "pods": 6281,
      "pores": 6282,
      "p16": 6283,
      "rer": 6284,
      "rid": 6285,
      "rav": 6286,
      "rated": 6287,
      "rud": 6288,
      "rose": 6289,
      "rhy": 6290,
      "rail": 6291,
      "rules": 6292,
      "ritual": 6293,
      "rusts": 6294,
      "rigid": 6295,
      "shat": 6296,
      "sess": 6297,
      "slight": 6298,
      "sag": 6299,
      "send": 6300,
      "sail": 6301,
      "tor": 6302,
      "tall": 6303,
      "tap": 6304,
      "tund": 6305,
      "tak": 6306,
      "tone": 6307,
      "tax": 6308,
      "torn": 6309,
      "tastes": 6310,
      "talk": 6311,
      "uroch": 6312,
      "vers": 6313,
      "vide": 6314,
      "vast": 6315,
      "vac": 6316,
      "vines": 6317,
      "wol": 6318,
      "west": 6319,
      "wide": 6320,
      "wine": 6321,
      "wart": 6322,
      "wides": 6323,
      "warn": 6324,
      "wax": 6325,
      "wounds": 6326,
      "wither": 6327,
      "walk": 6328,
      "yet": 6329,
      "yell": 6330,
      "yog": 6331,
      "yield": 6332,
      "yields": 6333,
      "##oe": 6334,
      "##orough": 6335,
      "##oons": 6336,
      "##ouring": 6337,
      "##oises": 6338,
      "##orol": 6339,
      "##to": 6340,
      "##tings": 6341,
      "##tropical": 6342,
      "##trog": 6343,
      "##tamines": 6344,
      "##hn": 6345,
      "##han": 6346,
      "##hic": 6347,
      "##hical": 6348,
      "##hill": 6349,
      "##hren": 6350,
      "##have": 6351,
      "##haps": 6352,
      "##horses": 6353,
      "##ee": 6354,
      "##ec": 6355,
      "##em": 6356,
      "##ek": 6357,
      "##eot": 6358,
      "##emp": 6359,
      "##eared": 6360,
      "##efficient": 6361,
      "##eorol": 6362,
      "##rm": 6363,
      "##ril": 6364,
      "##rance": 6365,
      "##rints": 6366,
      "##rivation": 6367,
      "##sh": 6368,
      "##sal": 6369,
      "##lers": 6370,
      "##lig": 6371,
      "##lied": 6372,
      "##lants": 6373,
      "##lify": 6374,
      "##ga": 6375,
      "##gal": 6376,
      "##gers": 6377,
      "##gree": 6378,
      "##irom": 6379,
      "##iers": 6380,
      "##ians": 6381,
      "##iff": 6382,
      "##ioles": 6383,
      "##ioph": 6384,
      "##iopods": 6385,
      "##cal": 6386,
      "##cia": 6387,
      "##ched": 6388,
      "##casses": 6389,
      "##cera": 6390,
      "##coming": 6391,
      "##cath": 6392,
      "##chemical": 6393,
      "##ua": 6394,
      "##uan": 6395,
      "##uep": 6396,
      "##uations": 6397,
      "##uage": 6398,
      "##umpt": 6399,
      "##umps": 6400,
      "##ny": 6401,
      "##nas": 6402,
      "##nel": 6403,
      "##nut": 6404,
      "##ners": 6405,
      "##fr": 6406,
      "##fro": 6407,
      "##fol": 6408,
      "##fect": 6409,
      "##bl": 6410,
      "##bor": 6411,
      "##bul": 6412,
      "##berg": 6413,
      "##best": 6414,
      "##bills": 6415,
      "##bble": 6416,
      "##bbers": 6417,
      "##blasts": 6418,
      "##bound": 6419,
      "##bidden": 6420,
      "##bacteria": 6421,
      "##dles": 6422,
      "##aj": 6423,
      "##aight": 6424,
      "##abs": 6425,
      "##aff": 6426,
      "##arent": 6427,
      "##away": 6428,
      "##yl": 6429,
      "##yz": 6430,
      "##ycles": 6431,
      "##yards": 6432,
      "##mids": 6433,
      "##pat": 6434,
      "##pts": 6435,
      "##power": 6436,
      "##pite": 6437,
      "##pawn": 6438,
      "##pread": 6439,
      "##xter": 6440,
      "##xine": 6441,
      "##king": 6442,
      "##vines": 6443,
      "##virom": 6444,
      "##wel": 6445,
      "##wave": 6446,
      "##wise": 6447,
      "##wards": 6448,
      "##worts": 6449,
      "##zz": 6450,
      "##zilla": 6451,
      "##atation": 6452,
      "##ature": 6453,
      "##atyp": 6454,
      "##atable": 6455,
      "##ativity": 6456,
      "##athetic": 6457,
      "##heal": 6458,
      "##heit": 6459,
      "##hems": 6460,
      "##hetamines": 6461,
      "##ese": 6462,
      "##escopes": 6463,
      "##erth": 6464,
      "##erness": 6465,
      "##erase": 6466,
      "##inds": 6467,
      "##inine": 6468,
      "##inations": 6469,
      "##inism": 6470,
      "##inically": 6471,
      "##inctive": 6472,
      "##inarily": 6473,
      "##inian": 6474,
      "whatever": 6475,
      "##any": 6476,
      "##onite": 6477,
      "##onbills": 6478,
      "##alp": 6479,
      "##aling": 6480,
      "##align": 6481,
      "##alization": 6482,
      "anch": 6483,
      "anomal": 6484,
      "ancath": 6485,
      "##rove": 6486,
      "##rock": 6487,
      "##oris": 6488,
      "##oram": 6489,
      "##orids": 6490,
      "##order": 6491,
      "##orized": 6492,
      "##orious": 6493,
      "inn": 6494,
      "inability": 6495,
      "inactive": 6496,
      "inlets": 6497,
      "inefficient": 6498,
      "inbound": 6499,
      "##ingos": 6500,
      "##ender": 6501,
      "##enoids": 6502,
      "island": 6503,
      "##arctic": 6504,
      "##ctuations": 6505,
      "aren": 6506,
      "##icing": 6507,
      "##icity": 6508,
      "##icating": 6509,
      "##icides": 6510,
      "##icycl": 6511,
      "##icoid": 6512,
      "##itor": 6513,
      "##itain": 6514,
      "##itary": 6515,
      "##itects": 6516,
      "##ush": 6517,
      "##uscles": 6518,
      "##asms": 6519,
      "##asible": 6520,
      "androgen": 6521,
      "##elle": 6522,
      "##eless": 6523,
      "##elong": 6524,
      "##eleot": 6525,
      "##ising": 6526,
      "##ishing": 6527,
      "##iscopes": 6528,
      "##leaf": 6529,
      "##legal": 6530,
      "##urity": 6531,
      "doll": 6532,
      "dodo": 6533,
      "doctor": 6534,
      "##veol": 6535,
      "cans": 6536,
      "forbidden": 6537,
      "##odes": 6538,
      "##odyn": 6539,
      "##odils": 6540,
      "##irus": 6541,
      "##irting": 6542,
      "##olated": 6543,
      "##olta": 6544,
      "##ilation": 6545,
      "##ilities": 6546,
      "##illet": 6547,
      "##osin": 6548,
      "##osal": 6549,
      "##oste": 6550,
      "##osures": 6551,
      "##omb": 6552,
      "##omy": 6553,
      "##omic": 6554,
      "##omav": 6555,
      "##ometric": 6556,
      "cave": 6557,
      "cakes": 6558,
      "##ims": 6559,
      "##imeters": 6560,
      "reve": 6561,
      "rever": 6562,
      "reusing": 6563,
      "beet": 6564,
      "bever": 6565,
      "##idant": 6566,
      "##idism": 6567,
      "prof": 6568,
      "proth": 6569,
      "promp": 6570,
      "procre": 6571,
      "prompt": 6572,
      "prokaryote": 6573,
      "##uly": 6574,
      "##ulds": 6575,
      "##ulate": 6576,
      "##ulated": 6577,
      "enric": 6578,
      "envirom": 6579,
      "lie": 6580,
      "lies": 6581,
      "lign": 6582,
      "##ghorns": 6583,
      "orang": 6584,
      "plain": 6585,
      "plays": 6586,
      "plumb": 6587,
      "plenty": 6588,
      "##ceed": 6589,
      "##oter": 6590,
      "##otion": 6591,
      "##otox": 6592,
      "##otence": 6593,
      "##othyroid": 6594,
      "##tein": 6595,
      "user": 6596,
      "hams": 6597,
      "hamm": 6598,
      "haze": 6599,
      "hazards": 6600,
      "wheat": 6601,
      "##eated": 6602,
      "##entation": 6603,
      "##ells": 6604,
      "##eller": 6605,
      "##utam": 6606,
      "##utans": 6607,
      "##utely": 6608,
      "##utaries": 6609,
      "ster": 6610,
      "stain": 6611,
      "stable": 6612,
      "stuck": 6613,
      "stumbling": 6614,
      "style": 6615,
      "status": 6616,
      "stiff": 6617,
      "planning": 6618,
      "watered": 6619,
      "watering": 6620,
      "waterfowl": 6621,
      "##thy": 6622,
      "##thra": 6623,
      "##actin": 6624,
      "##acters": 6625,
      "thro": 6626,
      "throw": 6627,
      "thorough": 6628,
      "chim": 6629,
      "choc": 6630,
      "chair": 6631,
      "chosen": 6632,
      "alarm": 6633,
      "alone": 6634,
      "alert": 6635,
      "alope": 6636,
      "alveol": 6637,
      "whenever": 6638,
      "sealed": 6639,
      "moulds": 6640,
      "degr": 6641,
      "deceptive": 6642,
      "degree": 6643,
      "dexter": 6644,
      "span": 6645,
      "spill": 6646,
      "spind": 6647,
      "sprou": 6648,
      "spins": 6649,
      "sphere": 6650,
      "spend": 6651,
      "spiny": 6652,
      "spasms": 6653,
      "speleot": 6654,
      "##umed": 6655,
      "soon": 6656,
      "soph": 6657,
      "exclud": 6658,
      "exists": 6659,
      "exemp": 6660,
      "##cket": 6661,
      "ash": 6662,
      "astrog": 6663,
      "asbest": 6664,
      "comfortable": 6665,
      "organelle": 6666,
      "##gets": 6667,
      "##geons": 6668,
      "##cha": 6669,
      "##apse": 6670,
      "##ivate": 6671,
      "flor": 6672,
      "flirting": 6673,
      "rooms": 6674,
      "route": 6675,
      "rounds": 6676,
      "co2": 6677,
      "cocc": 6678,
      "cogn": 6679,
      "count": 6680,
      "leo": 6681,
      "leach": 6682,
      "leaving": 6683,
      "leaved": 6684,
      "##estation": 6685,
      "##estment": 6686,
      "try": 6687,
      "trib": 6688,
      "trad": 6689,
      "track": 6690,
      "trapp": 6691,
      "trying": 6692,
      "tracts": 6693,
      "truly": 6694,
      "neck": 6695,
      "neigh": 6696,
      "neopl": 6697,
      "whom": 6698,
      "whale": 6699,
      "##ibly": 6700,
      "obst": 6701,
      "oblig": 6702,
      "genomic": 6703,
      "channel": 6704,
      "electrost": 6705,
      "eardr": 6706,
      "lighter": 6707,
      "repelled": 6708,
      "repeated": 6709,
      "atoll": 6710,
      "atlant": 6711,
      "atrophy": 6712,
      "earthy": 6713,
      "alloy": 6714,
      "meals": 6715,
      "megas": 6716,
      "organising": 6717,
      "##adoes": 6718,
      "##ollate": 6719,
      "growls": 6720,
      "diat": 6721,
      "died": 6722,
      "diagon": 6723,
      "dioram": 6724,
      "super": 6725,
      "suffer": 6726,
      "##illus": 6727,
      "insurance": 6728,
      "carnivores": 6729,
      "carcasses": 6730,
      "implies": 6731,
      "impulsion": 6732,
      "implants": 6733,
      "impotence": 6734,
      "surpl": 6735,
      "sungl": 6736,
      "sunfl": 6737,
      "##ffodils": 6738,
      "dissem": 6739,
      "##izzards": 6740,
      "##abl": 6741,
      "hemp": 6742,
      "height": 6743,
      "hepat": 6744,
      "shr": 6745,
      "shores": 6746,
      "shoes": 6747,
      "shield": 6748,
      "speakers": 6749,
      "rocketry": 6750,
      "blows": 6751,
      "blade": 6752,
      "blazing": 6753,
      "bluep": 6754,
      "blizzards": 6755,
      "uns": 6756,
      "unp": 6757,
      "undr": 6758,
      "until": 6759,
      "unfort": 6760,
      "unisexual": 6761,
      "unheal": 6762,
      "##igo": 6763,
      "##igative": 6764,
      "##igested": 6765,
      "coliform": 6766,
      "compass": 6767,
      "companies": 6768,
      "foam": 6769,
      "forel": 6770,
      "prions": 6771,
      "prime": 6772,
      "prair": 6773,
      "##hemicals": 6774,
      "adds": 6775,
      "##ruit": 6776,
      "##rubbers": 6777,
      "plantings": 6778,
      "##ricts": 6779,
      "smog": 6780,
      "smoked": 6781,
      "manif": 6782,
      "manual": 6783,
      "managed": 6784,
      "helix": 6785,
      "##gesics": 6786,
      "clown": 6787,
      "clubs": 6788,
      "clumps": 6789,
      "clinically": 6790,
      "evade": 6791,
      "consumpt": 6792,
      "##erator": 6793,
      "helpful": 6794,
      "feels": 6795,
      "fevers": 6796,
      "feasible": 6797,
      "occurren": 6798,
      "typifies": 6799,
      "premat": 6800,
      "previous": 6801,
      "rainwater": 6802,
      "teach": 6803,
      "teeth": 6804,
      "##nah": 6805,
      "##nake": 6806,
      "##nacles": 6807,
      "transist": 6808,
      "##ongated": 6809,
      "pollens": 6810,
      "pollute": 6811,
      "##erty": 6812,
      "##ertility": 6813,
      "##ermost": 6814,
      "glare": 6815,
      "glutam": 6816,
      "gaskets": 6817,
      "infertility": 6818,
      "##isticated": 6819,
      "##soil": 6820,
      "##insic": 6821,
      "##insula": 6822,
      "swallow": 6823,
      "solutes": 6824,
      "treache": 6825,
      "##ageous": 6826,
      "bacterioph": 6827,
      "funny": 6828,
      "acellular": 6829,
      "egrets": 6830,
      "loch": 6831,
      "reloc": 6832,
      "relocation": 6833,
      "relativity": 6834,
      "bioc": 6835,
      "biology": 6836,
      "bighorns": 6837,
      "partly": 6838,
      "partially": 6839,
      "partners": 6840,
      "pets": 6841,
      "peach": 6842,
      "##ultry": 6843,
      "##ipment": 6844,
      "##onesia": 6845,
      "grams": 6846,
      "grumbling": 6847,
      "overhan": 6848,
      "overcoming": 6849,
      "##hest": 6850,
      "upwards": 6851,
      "sky": 6852,
      "skull": 6853,
      "skyro": 6854,
      "skiing": 6855,
      "skillet": 6856,
      "metric": 6857,
      "meteorol": 6858,
      "windows": 6859,
      "windiest": 6860,
      "windpower": 6861,
      "downhill": 6862,
      "needing": 6863,
      "notorious": 6864,
      "deprivation": 6865,
      "exposing": 6866,
      "expelled": 6867,
      "expulsion": 6868,
      "mice": 6869,
      "abscess": 6870,
      "absence": 6871,
      "##ift": 6872,
      "##ifers": 6873,
      "##iforn": 6874,
      "longest": 6875,
      "##issosp": 6876,
      "##othermal": 6877,
      "growths": 6878,
      "amaz": 6879,
      "amoe": 6880,
      "pour": 6881,
      "poultry": 6882,
      "salting": 6883,
      "##icks": 6884,
      "music": 6885,
      "brine": 6886,
      "britain": 6887,
      "bricks": 6888,
      "offer": 6889,
      "measurable": 6890,
      "sensation": 6891,
      "##attered": 6892,
      "seeding": 6893,
      "seedless": 6894,
      "bump": 6895,
      "bugs": 6896,
      "buoy": 6897,
      "bubbles": 6898,
      "bubble": 6899,
      "firewood": 6900,
      "genetically": 6901,
      "craw": 6902,
      "cramps": 6903,
      "crabs": 6904,
      "cricoid": 6905,
      "dries": 6906,
      "dress": 6907,
      "dryn": 6908,
      "redwoods": 6909,
      "transplant": 6910,
      "likewise": 6911,
      "grey": 6912,
      "##obacteria": 6913,
      "attach": 6914,
      "attention": 6915,
      "perimeter": 6916,
      "perhaps": 6917,
      "periscopes": 6918,
      "##acic": 6919,
      "##acellular": 6920,
      "##acchar": 6921,
      "breeding": 6922,
      "detr": 6923,
      "molecular": 6924,
      "bullying": 6925,
      "mutant": 6926,
      "mutagen": 6927,
      "differing": 6928,
      "difference": 6929,
      "corrosion": 6930,
      "correl": 6931,
      "##derful": 6932,
      "slate": 6933,
      "slip": 6934,
      "slowing": 6935,
      "providing": 6936,
      "greenery": 6937,
      "popular": 6938,
      "vaporization": 6939,
      "fertility": 6940,
      "game": 6941,
      "gamma": 6942,
      "immature": 6943,
      "##ologically": 6944,
      "pressed": 6945,
      "antarctic": 6946,
      "anticycl": 6947,
      "structurally": 6948,
      "outages": 6949,
      "output": 6950,
      "outlets": 6951,
      "outermost": 6952,
      "propels": 6953,
      "proportion": 6954,
      "propelled": 6955,
      "developers": 6956,
      "completed": 6957,
      "commonest": 6958,
      "decent": 6959,
      "decollate": 6960,
      "adapts": 6961,
      "adapting": 6962,
      "fertilizer": 6963,
      "##ervent": 6964,
      "photov": 6965,
      "saltwater": 6966,
      "fishho": 6967,
      "containers": 6968,
      "condensed": 6969,
      "immunology": 6970,
      "hotter": 6971,
      "forceful": 6972,
      "endogen": 6973,
      "endoplasmic": 6974,
      "pollinates": 6975,
      "##ileps": 6976,
      "twenty": 6977,
      "wear": 6978,
      "##oxidant": 6979,
      "flooded": 6980,
      "substrate": 6981,
      "##ochemicals": 6982,
      "chromatic": 6983,
      "chromosomal": 6984,
      "sedimentation": 6985,
      "microwave": 6986,
      "sweated": 6987,
      "locally": 6988,
      "##rential": 6989,
      "respirations": 6990,
      "##orescent": 6991,
      "##adian": 6992,
      "attracting": 6993,
      "attraction": 6994,
      "bould": 6995,
      "boats": 6996,
      "eats": 6997,
      "iceberg": 6998,
      "mechanically": 6999,
      "distinct": 7000,
      "distortion": 7001,
      "distinctive": 7002,
      "femoris": 7003,
      "##aebacteria": 7004,
      "passage": 7005,
      "emitting": 7006,
      "haircoat": 7007,
      "intern": 7008,
      "interp": 7009,
      "interrel": 7010,
      "inval": 7011,
      "invade": 7012,
      "invading": 7013,
      "investment": 7014,
      "characters": 7015,
      "trails": 7016,
      "oceanic": 7017,
      "curly": 7018,
      "recent": 7019,
      "recomm": 7020,
      "records": 7021,
      "recipe": 7022,
      "turnips": 7023,
      "indire": 7024,
      "indust": 7025,
      "indicated": 7026,
      "indonesia": 7027,
      "##rophobic": 7028,
      "buttock": 7029,
      "desmids": 7030,
      "despite": 7031,
      "supports": 7032,
      "supplied": 7033,
      "fatal": 7034,
      "receiving": 7035,
      "primord": 7036,
      "escapes": 7037,
      "scion": 7038,
      "scents": 7039,
      "scorp": 7040,
      "scalp": 7041,
      "scrubbers": 7042,
      "scattered": 7043,
      "finding": 7044,
      "insulates": 7045,
      "planetary": 7046,
      "apples": 7047,
      "appears": 7048,
      "quest": 7049,
      "##inkable": 7050,
      "complexed": 7051,
      "complexity": 7052,
      "newton": 7053,
      "newborn": 7054,
      "climax": 7055,
      "precurs": 7056,
      "eugl": 7057,
      "eukaryote": 7058,
      "security": 7059,
      "combinations": 7060,
      "solidification": 7061,
      "solidifies": 7062,
      "radiotherapy": 7063,
      "flowerless": 7064,
      "consume": 7065,
      "consumer": 7066,
      "microspores": 7067,
      "transferring": 7068,
      "irrig": 7069,
      "limb": 7070,
      "limit": 7071,
      "limonite": 7072,
      "behavioral": 7073,
      "melted": 7074,
      "runaway": 7075,
      "starvation": 7076,
      "defect": 7077,
      "defend": 7078,
      "smoothed": 7079,
      "##rows": 7080,
      "strand": 7081,
      "straight": 7082,
      "merely": 7083,
      "voluntary": 7084,
      "voltage": 7085,
      "hydrophobic": 7086,
      "autosomal": 7087,
      "backs": 7088,
      "friends": 7089,
      "fluctuations": 7090,
      "fluorescent": 7091,
      "inflamm": 7092,
      "accoun": 7093,
      "creatinine": 7094,
      "startling": 7095,
      "illumin": 7096,
      "incomp": 7097,
      "incorp": 7098,
      "dissolves": 7099,
      "avian": 7100,
      "fibrous": 7101,
      "seahorses": 7102,
      "moonlight": 7103,
      "underwater": 7104,
      "informed": 7105,
      "circadian": 7106,
      "monophy": 7107,
      "nitrate": 7108,
      "##tonwood": 7109,
      "##exist": 7110,
      "terrain": 7111,
      "pushes": 7112,
      "therm": 7113,
      "adaptive": 7114,
      "stimulus": 7115,
      "stimulants": 7116,
      "elongated": 7117,
      "litters": 7118,
      "polic": 7119,
      "##orders": 7120,
      "smells": 7121,
      "smelling": 7122,
      "minute": 7123,
      "minutes": 7124,
      "mitotic": 7125,
      "theme": 7126,
      "refracts": 7127,
      "microorganism": 7128,
      "centrif": 7129,
      "centimeters": 7130,
      "continents": 7131,
      "continually": 7132,
      "boiled": 7133,
      "directs": 7134,
      "denser": 7135,
      "densities": 7136,
      "geograp": 7137,
      "geese": 7138,
      "geothermal": 7139,
      "##yroidism": 7140,
      "player": 7141,
      "magnets": 7142,
      "secretes": 7143,
      "digested": 7144,
      "classic": 7145,
      "classify": 7146,
      "releasing": 7147,
      "frogspawn": 7148,
      "copulation": 7149,
      "lowers": 7150,
      "ovary": 7151,
      "ovules": 7152,
      "glasses": 7153,
      "broad": 7154,
      "ethical": 7155,
      "ethology": 7156,
      "lowered": 7157,
      "##letely": 7158,
      "deepening": 7159,
      "predation": 7160,
      "predator": 7161,
      "clever": 7162,
      "ribs": 7163,
      "ribosome": 7164,
      "wildf": 7165,
      "wildfowl": 7166,
      "wilderness": 7167,
      "elevation": 7168,
      "thyroxine": 7169,
      "aeration": 7170,
      "aerosols": 7171,
      "finite": 7172,
      "finished": 7173,
      "visibility": 7174,
      "viscera": 7175,
      "visitor": 7176,
      "replicate": 7177,
      "insectivorous": 7178,
      "maintaining": 7179,
      "highest": 7180,
      "childhood": 7181,
      "greatest": 7182,
      "hostile": 7183,
      "ignites": 7184,
      "##cytes": 7185,
      "disposal": 7186,
      "blocking": 7187,
      "engineers": 7188,
      "backboned": 7189,
      "bends": 7190,
      "benign": 7191,
      "belts": 7192,
      "calcul": 7193,
      "californ": 7194,
      "collapse": 7195,
      "colligative": 7196,
      "risks": 7197,
      "dehydrate": 7198,
      "expanded": 7199,
      "vegetable": 7200,
      "availability": 7201,
      "territories": 7202,
      "sleeping": 7203,
      "association": 7204,
      "associate": 7205,
      "averages": 7206,
      "permaf": 7207,
      "snows": 7208,
      "##iciencies": 7209,
      "capability": 7210,
      "spoonbills": 7211,
      "shortage": 7212,
      "collects": 7213,
      "artery": 7214,
      "arterial": 7215,
      "arterioles": 7216,
      "receptive": 7217,
      "pugs": 7218,
      "underst": 7219,
      "undigested": 7220,
      "constricts": 7221,
      "dispersion": 7222,
      "crossings": 7223,
      "daisy": 7224,
      "daffodils": 7225,
      "oxide": 7226,
      "rubbing": 7227,
      "equals": 7228,
      "equipment": 7229,
      "famine": 7230,
      "famines": 7231,
      "tunicate": 7232,
      "vitro": 7233,
      "threats": 7234,
      "threaten": 7235,
      "threatens": 7236,
      "floating": 7237,
      "subtle": 7238,
      "subtropical": 7239,
      "periodically": 7240,
      "personality": 7241,
      "catch": 7242,
      "cattle": 7243,
      "model": 7244,
      "modular": 7245,
      "modified": 7246,
      "opening": 7247,
      "silts": 7248,
      "signs": 7249,
      "signify": 7250,
      "segreg": 7251,
      "cookies": 7252,
      "fourty": 7253,
      "mushroom": 7254,
      "strongly": 7255,
      "handling": 7256,
      "opposes": 7257,
      "peninsula": 7258,
      "protone": 7259,
      "protons": 7260,
      "protist": 7261,
      "encoun": 7262,
      "intricate": 7263,
      "intrinsic": 7264,
      "intracellular": 7265,
      "rainforest": 7266,
      "solutions": 7267,
      "burrowing": 7268,
      "similarly": 7269,
      "alcohols": 7270,
      "richard": 7271,
      "urban": 7272,
      "widening": 7273,
      "injured": 7274,
      "intensify": 7275,
      "exciting": 7276,
      "exertion": 7277,
      "flying": 7278,
      "rubbery": 7279,
      "flagellates": 7280,
      "filter": 7281,
      "snowm": 7282,
      "sinking": 7283,
      "weighted": 7284,
      "interacts": 7285,
      "platypuses": 7286,
      "toxicity": 7287,
      "delic": 7288,
      "epileps": 7289,
      "fahren": 7290,
      "hyperth": 7291,
      "hypothyroid": 7292,
      "hypervent": 7293,
      "medic": 7294,
      "media": 7295,
      "mixed": 7296,
      "piece": 7297,
      "##cinated": 7298,
      "loudness": 7299,
      "carbohydrate": 7300,
      "oxidized": 7301,
      "oxidizes": 7302,
      "sweetness": 7303,
      "dilate": 7304,
      "dilute": 7305,
      "dilatation": 7306,
      "estrogen": 7307,
      "##niques": 7308,
      "softest": 7309,
      "forever": 7310,
      "boundary": 7311,
      "distractions": 7312,
      "irritate": 7313,
      "sulfuric": 7314,
      "purposes": 7315,
      "lasting": 7316,
      "vineyards": 7317,
      "##angle": 7318,
      "inhib": 7319,
      "inhibits": 7320,
      "orbits": 7321,
      "shared": 7322,
      "shedding": 7323,
      "antioxidant": 7324,
      "april": 7325,
      "bushes": 7326,
      "business": 7327,
      "cups": 7328,
      "hook": 7329,
      "hooked": 7330,
      "lawns": 7331,
      "vessel": 7332,
      "feelers": 7333,
      "abnormalities": 7334,
      "dependant": 7335,
      "mammalian": 7336,
      "pumps": 7337,
      "barnacles": 7338,
      "kicking": 7339,
      "match": 7340,
      "scientist": 7341,
      "wedges": 7342,
      "##chen": 7343,
      "##iveness": 7344,
      "neutrin": 7345,
      "techniques": 7346,
      "biomole": 7347,
      "methanol": 7348,
      "steps": 7349,
      "recognize": 7350,
      "incandesc": 7351,
      "elemental": 7352,
      "belonging": 7353,
      "catalyst": 7354,
      "penetrate": 7355,
      "connections": 7356,
      "adjustment": 7357,
      "dormancy": 7358,
      "viable": 7359,
      "lifelong": 7360,
      "thaws": 7361,
      "perfect": 7362,
      "localize": 7363,
      "emergent": 7364,
      "hydrocarb": 7365,
      "multiplying": 7366,
      "browning": 7367,
      "joints": 7368,
      "halogen": 7369,
      "hardens": 7370,
      "sinus": 7371,
      "tubular": 7372,
      "tubules": 7373,
      "womb": 7374,
      "ingestive": 7375,
      "translating": 7376,
      "depressive": 7377,
      "depressions": 7378,
      "diesel": 7379,
      "fishes": 7380,
      "latent": 7381,
      "olfact": 7382,
      "settings": 7383,
      "telev": 7384,
      "teleph": 7385,
      "telescopes": 7386,
      "zoos": 7387,
      "ready": 7388,
      "strike": 7389,
      "strikes": 7390,
      "strips": 7391,
      "strictly": 7392,
      "striking": 7393,
      "splay": 7394,
      "splits": 7395,
      "assert": 7396,
      "assumed": 7397,
      "particulates": 7398,
      "array": 7399,
      "decayed": 7400,
      "disturbed": 7401,
      "precede": 7402,
      "petrochemical": 7403,
      "erode": 7404,
      "eroding": 7405,
      "features": 7406,
      "miles": 7407,
      "menses": 7408,
      "turf": 7409,
      "turbellar": 7410,
      "vomitus": 7411,
      "enveloped": 7412,
      "sticking": 7413,
      "chrissosp": 7414,
      "bluebell": 7415,
      "skeletal": 7416,
      "cycling": 7417,
      "cyclonic": 7418,
      "cranium": 7419,
      "cleanest": 7420,
      "symmetrical": 7421,
      "dropped": 7422,
      "sustained": 7423,
      "crucial": 7424,
      "meats": 7425,
      "pacinian": 7426,
      "puberty": 7427,
      "targets": 7428,
      "vaccine": 7429,
      "vaccines": 7430,
      "manufacturing": 7431,
      "abundance": 7432,
      "amniotes": 7433,
      "extinctions": 7434,
      "rotational": 7435,
      "simpler": 7436,
      "accumulates": 7437,
      "elimination": 7438,
      "replaced": 7439,
      "semiochemicals": 7440,
      "assembly": 7441,
      "assembling": 7442,
      "binding": 7443,
      "fixed": 7444,
      "fixing": 7445,
      "gardening": 7446,
      "ionized": 7447,
      "myrm": 7448,
      "myosin": 7449,
      "mynah": 7450,
      "operation": 7451,
      "operated": 7452,
      "pulped": 7453,
      "pulmon": 7454,
      "safe": 7455,
      "safest": 7456,
      "safely": 7457,
      "##licated": 7458,
      "anemia": 7459,
      "topics": 7460,
      "topsoil": 7461,
      "toughness": 7462,
      "bearings": 7463,
      "exchanged": 7464,
      "##ophorids": 7465,
      "transmission": 7466,
      "distributed": 7467,
      "interfere": 7468,
      "designated": 7469,
      "echidnas": 7470,
      "herbaceous": 7471,
      "herbicides": 7472,
      "identical": 7473,
      "identified": 7474,
      "ample": 7475,
      "amphetamines": 7476,
      "bouncing": 7477,
      "germinate": 7478,
      "guitars": 7479,
      "leds": 7480,
      "rulers": 7481,
      "rusty": 7482,
      "##ugal": 7483,
      "##ugged": 7484,
      "induce": 7485,
      "##tegration": 7486,
      "stabiliz": 7487,
      "soaked": 7488,
      "represent": 7489,
      "represents": 7490,
      "unlikely": 7491,
      "focused": 7492,
      "reflexes": 7493,
      "phototropic": 7494,
      "emotional": 7495,
      "followed": 7496,
      "scarred": 7497,
      "stratus": 7498,
      "stratified": 7499,
      "incinerator": 7500,
      "undergoing": 7501,
      "originates": 7502,
      "crumpled": 7503,
      "carpools": 7504,
      "bamboos": 7505,
      "bottlenecks": 7506,
      "aquifers": 7507,
      "barom": 7508,
      "bedrock": 7509,
      "bicycle": 7510,
      "bivalve": 7511,
      "fuligo": 7512,
      "golf": 7513,
      "hermatyp": 7514,
      "lavender": 7515,
      "malnut": 7516,
      "mullet": 7517,
      "pigments": 7518,
      "worse": 7519,
      "worsen": 7520,
      "##beans": 7521,
      "##estern": 7522,
      "camels": 7523,
      "prolactin": 7524,
      "enhances": 7525,
      "orchid": 7526,
      "strokes": 7527,
      "decline": 7528,
      "declines": 7529,
      "flightless": 7530,
      "observe": 7531,
      "acquire": 7532,
      "drained": 7533,
      "fragile": 7534,
      "fragments": 7535,
      "fragmentation": 7536,
      "framework": 7537,
      "weaker": 7538,
      "basalt": 7539,
      "accidental": 7540,
      "incubate": 7541,
      "devastate": 7542,
      "rhizomes": 7543,
      "triggered": 7544,
      "triggering": 7545,
      "cucumber": 7546,
      "bonding": 7547,
      "crohn": 7548,
      "cultivate": 7549,
      "duct": 7550,
      "ductile": 7551,
      "derive": 7552,
      "derived": 7553,
      "driver": 7554,
      "firm": 7555,
      "fetch": 7556,
      "homo": 7557,
      "homeless": 7558,
      "jumps": 7559,
      "palatable": 7560,
      "raise": 7561,
      "raises": 7562,
      "sculpts": 7563,
      "sacs": 7564,
      "saccha": 7565,
      "wonderful": 7566,
      "analog": 7567,
      "analgesics": 7568,
      "angiosperms": 7569,
      "##rolite": 7570,
      "initiated": 7571,
      "integrating": 7572,
      "isotopes": 7573,
      "regenerate": 7574,
      "enclosed": 7575,
      "enclosures": 7576,
      "alkaline": 7577,
      "alkalosis": 7578,
      "sequences": 7579,
      "deuterium": 7580,
      "flamingos": 7581,
      "allergic": 7582,
      "disappears": 7583,
      "disappeared": 7584,
      "glacial": 7585,
      "glaciers": 7586,
      "expressed": 7587,
      "expression": 7588,
      "america": 7589,
      "economical": 7590,
      "vehicles": 7591,
      "accomplished": 7592,
      "arthropoda": 7593,
      "constituent": 7594,
      "delivered": 7595,
      "estimate": 7596,
      "estimated": 7597,
      "experiencing": 7598,
      "translational": 7599,
      "fishers": 7600,
      "displaying": 7601,
      "chickenpox": 7602,
      "astronomers": 7603,
      "astronomical": 7604,
      "discovered": 7605,
      "accurate": 7606,
      "accurately": 7607,
      "benthic": 7608,
      "cottonwood": 7609,
      "drug": 7610,
      "drugs": 7611,
      "hindrance": 7612,
      "jungles": 7613,
      "rodents": 7614,
      "sapiens": 7615,
      "saprolite": 7616,
      "tension": 7617,
      "urea": 7618,
      "urethra": 7619,
      "watts": 7620,
      "warms": 7621,
      "##ramid": 7622,
      "##rochron": 7623,
      "inherently": 7624,
      "oriented": 7625,
      "orientation": 7626,
      "conifers": 7627,
      "septic": 7628,
      "septica": 7629,
      "intimidate": 7630,
      "soybeans": 7631,
      "triangle": 7632,
      "contrast": 7633,
      "sugary": 7634,
      "sugars": 7635,
      "residue": 7636,
      "shifts": 7637,
      "shifting": 7638,
      "universe": 7639,
      "universal": 7640,
      "mangoes": 7641,
      "mangrove": 7642,
      "closer": 7643,
      "closely": 7644,
      "pregnancy": 7645,
      "gradual": 7646,
      "overheat": 7647,
      "architects": 7648,
      "archaebacteria": 7649,
      "deterrent": 7650,
      "frightening": 7651,
      "frightened": 7652,
      "propagation": 7653,
      "proprioception": 7654,
      "proprioceptive": 7655,
      "suppressor": 7656,
      "africa": 7657,
      "african": 7658,
      "scavengers": 7659,
      "polymerase": 7660,
      "physiology": 7661,
      "physiologically": 7662,
      "uncommon": 7663,
      "uncomfortable": 7664,
      "emotionally": 7665,
      "rhizobial": 7666,
      "rhizobium": 7667,
      "duplicate": 7668,
      "duplication": 7669,
      "synthesised": 7670,
      "chondroblasts": 7671,
      "chondrocytes": 7672,
      "principle": 7673,
      "phenomena": 7674,
      "phenomenon": 7675,
      "193": 7676,
      "aphids": 7677,
      "bisection": 7678,
      "darwin": 7679,
      "dimensions": 7680,
      "dendrochron": 7681,
      "efficiency": 7682,
      "eagles": 7683,
      "fingers": 7684,
      "fascinated": 7685,
      "flea": 7686,
      "folks": 7687,
      "fissures": 7688,
      "fibres": 7689,
      "jaws": 7690,
      "jellyfish": 7691,
      "lubr": 7692,
      "lithified": 7693,
      "literally": 7694,
      "misalign": 7695,
      "pyramid": 7696,
      "pelv": 7697,
      "saddle": 7698,
      "situation": 7699,
      "taiw": 7700,
      "timing": 7701,
      "tongues": 7702,
      "voas": 7703,
      "vertical": 7704,
      "westerlies": 7705,
      "andrew": 7706,
      "double": 7707,
      "canyon": 7708,
      "##olithophorids": 7709,
      "cabbage": 7710,
      "byproducts": 7711,
      "conclusion": 7712,
      "maple": 7713,
      "albinism": 7714,
      "spinning": 7715,
      "spiracles": 7716,
      "examined": 7717,
      "asthma": 7718,
      "disintegration": 7719,
      "discussed": 7720,
      "shoreline": 7721,
      "unrest": 7722,
      "##ricted": 7723,
      "gastropods": 7724,
      "commuting": 7725,
      "lobsters": 7726,
      "virtue": 7727,
      "grapevines": 7728,
      "absolutely": 7729,
      "cyanobacteria": 7730,
      "branches": 7731,
      "nourish": 7732,
      "attributed": 7733,
      "peripheral": 7734,
      "detailed": 7735,
      "bullfro": 7736,
      "corpuscles": 7737,
      "immobile": 7738,
      "immediately": 7739,
      "propellers": 7740,
      "remarkably": 7741,
      "##ocystus": 7742,
      "locomotion": 7743,
      "mechanoreceptors": 7744,
      "hybrids": 7745,
      "scrape": 7746,
      "paralytic": 7747,
      "appliances": 7748,
      "evergreen": 7749,
      "melanoma": 7750,
      "dissipates": 7751,
      "minimizing": 7752,
      "phenotypically": 7753,
      "papillomav": 7754,
      "continuance": 7755,
      "returns": 7756,
      "goldenrod": 7757,
      "excitotox": 7758,
      "advantageous": 7759,
      "descendants": 7760,
      "phosphatases": 7761,
      "satellites": 7762,
      "mildew": 7763,
      "extraordinarily": 7764,
      "susceptible": 7765,
      "rattlesnake": 7766,
      "succulents": 7767,
      "americans": 7768,
      "leukemia": 7769,
      "predominantly": 7770,
      "categorized": 7771,
      "koalas": 7772,
      "odorless": 7773,
      "vigorously": 7774,
      "demonstrates": 7775,
      "southwestern": 7776,
      "accommodation": 7777,
      "aimed": 7778,
      "auburn": 7779,
      "afferent": 7780,
      "borne": 7781,
      "bleach": 7782,
      "bellows": 7783,
      "cypress": 7784,
      "cashion": 7785,
      "erectile": 7786,
      "einstein": 7787,
      "edema": 7788,
      "erupting": 7789,
      "fantastic": 7790,
      "fractions": 7791,
      "godzilla": 7792,
      "gallon": 7793,
      "gateway": 7794,
      "grip": 7795,
      "goggles": 7796,
      "garnets": 7797,
      "harsh": 7798,
      "hospit": 7799,
      "illegal": 7800,
      "iguan": 7801,
      "iowa": 7802,
      "jewel": 7803,
      "jersey": 7804,
      "joule": 7805,
      "jordan": 7806,
      "knit": 7807,
      "kwh": 7808,
      "kitchen": 7809,
      "lanter": 7810,
      "lodge": 7811,
      "lumber": 7812,
      "labor": 7813,
      "lupron": 7814,
      "language": 7815,
      "molasses": 7816,
      "martens": 7817,
      "meningitis": 7818,
      "nanometers": 7819,
      "navaj": 7820,
      "nuisance": 7821,
      "ocarina": 7822,
      "pigeons": 7823,
      "p53": 7824,
      "ravens": 7825,
      "rudder": 7826,
      "rhyth": 7827,
      "shatter": 7828,
      "sessile": 7829,
      "slightly": 7830,
      "sagua": 7831,
      "sending": 7832,
      "torrential": 7833,
      "tundra": 7834,
      "taken": 7835,
      "tornadoes": 7836,
      "urochordates": 7837,
      "versatile": 7838,
      "wolves": 7839,
      "widespread": 7840,
      "yellow": 7841,
      "yoga": 7842,
      "##ecocystus": 7843,
      "##yzed": 7844,
      "anomaly": 7845,
      "ancathoste": 7846,
      "##odynam": 7847,
      "##oltaic": 7848,
      "reverse": 7849,
      "prothallus": 7850,
      "prompts": 7851,
      "procreate": 7852,
      "enriched": 7853,
      "enviroment": 7854,
      "orangutans": 7855,
      "plumbing": 7856,
      "hamsters": 7857,
      "hammers": 7858,
      "stainless": 7859,
      "chocolate": 7860,
      "alerting": 7861,
      "alopecia": 7862,
      "alveoli": 7863,
      "degrade": 7864,
      "dexterity": 7865,
      "spindle": 7866,
      "sprouts": 7867,
      "speleothems": 7868,
      "sophisticated": 7869,
      "exemplify": 7870,
      "asbestos": 7871,
      "coccolithophorids": 7872,
      "cognitive": 7873,
      "tributaries": 7874,
      "traditional": 7875,
      "trapped": 7876,
      "neoplastic": 7877,
      "obligate": 7878,
      "electrostatic": 7879,
      "eardrum": 7880,
      "atlantic": 7881,
      "megaspores": 7882,
      "diagonally": 7883,
      "diorama": 7884,
      "superior": 7885,
      "suffered": 7886,
      "surplus": 7887,
      "sunglasses": 7888,
      "disseminated": 7889,
      "hepatitis": 7890,
      "blazingly": 7891,
      "blueprints": 7892,
      "undrinkable": 7893,
      "unfortun": 7894,
      "unhealthy": 7895,
      "foreland": 7896,
      "prairie": 7897,
      "clownfish": 7898,
      "consumption": 7899,
      "premature": 7900,
      "previously": 7901,
      "glutamate": 7902,
      "treacherous": 7903,
      "bacteriophages": 7904,
      "relocate": 7905,
      "biochemical": 7906,
      "peachleaf": 7907,
      "overhangs": 7908,
      "skyrocket": 7909,
      "meteorolog": 7910,
      "amazon": 7911,
      "amoeb": 7912,
      "buoyant": 7913,
      "dryness": 7914,
      "transplanted": 7915,
      "correlates": 7916,
      "antarctica": 7917,
      "proportionally": 7918,
      "photovoltaic": 7919,
      "fishhook": 7920,
      "endogenous": 7921,
      "boulders": 7922,
      "icebergs": 7923,
      "interrelated": 7924,
      "recommended": 7925,
      "buttocks": 7926,
      "primordia": 7927,
      "scorpions": 7928,
      "precursor": 7929,
      "euglenoids": 7930,
      "irrigation": 7931,
      "friendship": 7932,
      "inflammation": 7933,
      "incompletely": 7934,
      "monophyletic": 7935,
      "centrifugal": 7936,
      "geographical": 7937,
      "california": 7938,
      "permafrost": 7939,
      "understand": 7940,
      "epilepsy": 7941,
      "fahrenheit": 7942,
      "hyperthyroidism": 7943,
      "hypothyroidism": 7944,
      "businesses": 7945,
      "neutrinos": 7946,
      "biomolecules": 7947,
      "olfaction": 7948,
      "telephone": 7949,
      "myrmecocystus": 7950,
      "pulmonologists": 7951,
      "hermatypic": 7952,
      "malnutrition": 7953,
      "misalignment": 7954,
      "taiwan": 7955,
      "bullfrogs": 7956,
      "papillomavirus": 7957,
      "excitotoxicity": 7958,
      "iguanas": 7959,
      "jewelry": 7960,
      "navajo": 7961,
      "saguaro": 7962,
      "ancathostega": 7963,
      ")?": 7964,
      "--": 7965,
      "..": 7966,
      ".\"": 7967,
      "1l": 7968,
      "15": 7969,
      "16": 7970,
      "14": 7971,
      "17": 7972,
      "20": 7973,
      "21": 7974,
      "23": 7975,
      "200": 7976,
      "31": 7977,
      "35": 7978,
      "36": 7979,
      "48": 7980,
      "45": 7981,
      "500": 7982,
      "60": 7983,
      "65": 7984,
      "70": 7985,
      "78": 7986,
      "?.": 7987,
      "?\"": 7988,
      "?`": 7989,
      "__": 7990,
      "_ca": 7991,
      "_car": 7992,
      "_to": 7993,
      "_have": 7994,
      "ae": 7995,
      "aa": 7996,
      "aw": 7997,
      "az": 7998,
      "ats": 7999,
      "aff": 8000,
      "aust": 8001,
      "bt": 8002,
      "bc": 8003,
      "bat": 8004,
      "ber": 8005,
      "bol": 8006,
      "bid": 8007,
      "bject": 8008,
      "bill": 8009,
      "biz": 8010,
      "berm": 8011,
      "bog": 8012,
      "bult": 8013,
      "bale": 8014,
      "bits": 8015,
      "bac": 8016,
      "bows": 8017,
      "bold": 8018,
      "bake": 8019,
      "barn": 8020,
      "baking": 8021,
      "bank": 8022,
      "bored": 8023,
      "bath": 8024,
      "bony": 8025,
      "bunch": 8026,
      "belly": 8027,
      "bakers": 8028,
      "bisexual": 8029,
      "binds": 8030,
      "bomb": 8031,
      "borders": 8032,
      "ce": 8033,
      "cc": 8034,
      "cf": 8035,
      "cin": 8036,
      "cod": 8037,
      "cos": 8038,
      "cul": 8039,
      "cum": 8040,
      "cost": 8041,
      "cri": 8042,
      "cations": 8043,
      "cub": 8044,
      "cider": 8045,
      "cities": 8046,
      "cerate": 8047,
      "cyst": 8048,
      "costs": 8049,
      "cubs": 8050,
      "cush": 8051,
      "crows": 8052,
      "dc": 8053,
      "dw": 8054,
      "den": 8055,
      "dur": 8056,
      "dates": 8057,
      "dors": 8058,
      "damp": 8059,
      "dances": 8060,
      "dang": 8061,
      "dental": 8062,
      "dug": 8063,
      "drif": 8064,
      "e6": 8065,
      "eil": 8066,
      "eons": 8067,
      "east": 8068,
      "ell": 8069,
      "empt": 8070,
      "effic": 8071,
      "erupts": 8072,
      "fens": 8073,
      "fav": 8074,
      "fif": 8075,
      "fring": 8076,
      "fail": 8077,
      "fills": 8078,
      "fade": 8079,
      "fitting": 8080,
      "fights": 8081,
      "fenn": 8082,
      "fsh": 8083,
      "gu": 8084,
      "gat": 8085,
      "ger": 8086,
      "gal": 8087,
      "gent": 8088,
      "gum": 8089,
      "gly": 8090,
      "gust": 8091,
      "gour": 8092,
      "giving": 8093,
      "ganges": 8094,
      "gestation": 8095,
      "gift": 8096,
      "hor": 8097,
      "hus": 8098,
      "hol": 8099,
      "hood": 8100,
      "hrom": 8101,
      "hive": 8102,
      "hud": 8103,
      "hant": 8104,
      "hands": 8105,
      "hides": 8106,
      "hob": 8107,
      "hlo": 8108,
      "hats": 8109,
      "hock": 8110,
      "hectar": 8111,
      "horn": 8112,
      "hope": 8113,
      "hugs": 8114,
      "iv": 8115,
      "ian": 8116,
      "iod": 8117,
      "iph": 8118,
      "jim": 8119,
      "jets": 8120,
      "ka": 8121,
      "km": 8122,
      "ker": 8123,
      "kal": 8124,
      "kle": 8125,
      "kil": 8126,
      "ket": 8127,
      "kent": 8128,
      "kans": 8129,
      "kary": 8130,
      "kale": 8131,
      "kites": 8132,
      "kern": 8133,
      "kne": 8134,
      "kiw": 8135,
      "lh": 8136,
      "lb": 8137,
      "la": 8138,
      "lv": 8139,
      "lin": 8140,
      "ling": 8141,
      "lit": 8142,
      "lil": 8143,
      "lact": 8144,
      "lys": 8145,
      "lure": 8146,
      "lill": 8147,
      "lick": 8148,
      "leng": 8149,
      "lanes": 8150,
      "lamin": 8151,
      "lined": 8152,
      "lumin": 8153,
      "leth": 8154,
      "lush": 8155,
      "mu": 8156,
      "mes": 8157,
      "mor": 8158,
      "mas": 8159,
      "mur": 8160,
      "mun": 8161,
      "mow": 8162,
      "mys": 8163,
      "mans": 8164,
      "mind": 8165,
      "mated": 8166,
      "mone": 8167,
      "mons": 8168,
      "mist": 8169,
      "mint": 8170,
      "moth": 8171,
      "mites": 8172,
      "mph": 8173,
      "mats": 8174,
      "misp": 8175,
      "mode": 8176,
      "mission": 8177,
      "mention": 8178,
      "munch": 8179,
      "nd": 8180,
      "nk": 8181,
      "nes": 8182,
      "nur": 8183,
      "nun": 8184,
      "net": 8185,
      "neat": 8186,
      "nood": 8187,
      "ness": 8188,
      "nap": 8189,
      "nam": 8190,
      "nand": 8191,
      "nick": 8192,
      "nosed": 8193,
      "nurs": 8194,
      "nice": 8195,
      "nuts": 8196,
      "nyl": 8197,
      "nodes": 8198,
      "om": 8199,
      "ow": 8200,
      "o3": 8201,
      "ore": 8202,
      "occ": 8203,
      "ost": 8204,
      "oats": 8205,
      "oocytes": 8206,
      "oche": 8207,
      "option": 8208,
      "pd": 8209,
      "pin": 8210,
      "ple": 8211,
      "pod": 8212,
      "pun": 8213,
      "pys": 8214,
      "pans": 8215,
      "pest": 8216,
      "pad": 8217,
      "pill": 8218,
      "port": 8219,
      "pud": 8220,
      "pist": 8221,
      "pose": 8222,
      "poss": 8223,
      "phere": 8224,
      "pale": 8225,
      "pars": 8226,
      "pines": 8227,
      "pertain": 8228,
      "pian": 8229,
      "piles": 8230,
      "ql": 8231,
      "rc": 8232,
      "rp": 8233,
      "rar": 8234,
      "ros": 8235,
      "ride": 8236,
      "rage": 8237,
      "rip": 8238,
      "rural": 8239,
      "rods": 8240,
      "rats": 8241,
      "rider": 8242,
      "rule": 8243,
      "ritu": 8244,
      "rival": 8245,
      "rope": 8246,
      "rio": 8247,
      "ripp": 8248,
      "rugs": 8249,
      "raft": 8250,
      "rugged": 8251,
      "sar": 8252,
      "sas": 8253,
      "sch": 8254,
      "sam": 8255,
      "scre": 8256,
      "say": 8257,
      "sab": 8258,
      "samp": 8259,
      "sits": 8260,
      "says": 8261,
      "serv": 8262,
      "sized": 8263,
      "sams": 8264,
      "sown": 8265,
      "sacks": 8266,
      "s16": 8267,
      "saved": 8268,
      "sizing": 8269,
      "sells": 8270,
      "tit": 8271,
      "teat": 8272,
      "tib": 8273,
      "tire": 8274,
      "tight": 8275,
      "tort": 8276,
      "trough": 8277,
      "trop": 8278,
      "tires": 8279,
      "tip": 8280,
      "tag": 8281,
      "tied": 8282,
      "tests": 8283,
      "tips": 8284,
      "tester": 8285,
      "tired": 8286,
      "toned": 8287,
      "van": 8288,
      "vic": 8289,
      "vent": 8290,
      "vult": 8291,
      "voles": 8292,
      "viny": 8293,
      "wing": 8294,
      "wis": 8295,
      "woll": 8296,
      "worm": 8297,
      "wast": 8298,
      "wamp": 8299,
      "wag": 8300,
      "wants": 8301,
      "wils": 8302,
      "warb": 8303,
      "wading": 8304,
      "wipe": 8305,
      "ya": 8306,
      "yes": 8307,
      "yol": 8308,
      "yep": 8309,
      "yout": 8310,
      "##oon": 8311,
      "##oro": 8312,
      "##oor": 8313,
      "##oing": 8314,
      "##oom": 8315,
      "##oot": 8316,
      "##oys": 8317,
      "##oire": 8318,
      "##ovir": 8319,
      "##oard": 8320,
      "##oved": 8321,
      "##oots": 8322,
      "##oices": 8323,
      "##oeci": 8324,
      "##ooked": 8325,
      "##tol": 8326,
      "##tical": 8327,
      "##test": 8328,
      "##tally": 8329,
      "##tons": 8330,
      "##tract": 8331,
      "##time": 8332,
      "##tibr": 8333,
      "##tances": 8334,
      "##tages": 8335,
      "##tubs": 8336,
      "##takers": 8337,
      "##tiful": 8338,
      "##ha": 8339,
      "##how": 8340,
      "##hine": 8341,
      "##hant": 8342,
      "##hold": 8343,
      "##hores": 8344,
      "##hibit": 8345,
      "##hase": 8346,
      "##ez": 8347,
      "##ees": 8348,
      "##eer": 8349,
      "##ean": 8350,
      "##eing": 8351,
      "##ece": 8352,
      "##ems": 8353,
      "##ebr": 8354,
      "##equat": 8355,
      "##ewable": 8356,
      "##eming": 8357,
      "##effici": 8358,
      "##rs": 8359,
      "##rit": 8360,
      "##right": 8361,
      "##rass": 8362,
      "##rons": 8363,
      "##rint": 8364,
      "##rite": 8365,
      "##rible": 8366,
      "##rats": 8367,
      "##resh": 8368,
      "##rasion": 8369,
      "##ss": 8370,
      "##sw": 8371,
      "##son": 8372,
      "##sen": 8373,
      "##sive": 8374,
      "##side": 8375,
      "##sely": 8376,
      "##self": 8377,
      "##sule": 8378,
      "##sured": 8379,
      "##lu": 8380,
      "##lar": 8381,
      "##lay": 8382,
      "##lial": 8383,
      "##lating": 8384,
      "##lines": 8385,
      "##lification": 8386,
      "##laced": 8387,
      "##lift": 8388,
      "##gle": 8389,
      "##gom": 8390,
      "##gical": 8391,
      "##gated": 8392,
      "##gins": 8393,
      "##gitation": 8394,
      "##gry": 8395,
      "##gamy": 8396,
      "##ii": 8397,
      "##iy": 8398,
      "##ien": 8399,
      "##iet": 8400,
      "##ient": 8401,
      "##iell": 8402,
      "##igan": 8403,
      "##iop": 8404,
      "##iate": 8405,
      "##ike": 8406,
      "##iad": 8407,
      "##iary": 8408,
      "##iros": 8409,
      "##iant": 8410,
      "##ife": 8411,
      "##iast": 8412,
      "##iance": 8413,
      "##iods": 8414,
      "##ikes": 8415,
      "##iums": 8416,
      "##ipper": 8417,
      "##cer": 8418,
      "##cation": 8419,
      "##cain": 8420,
      "##cure": 8421,
      "##cad": 8422,
      "##cill": 8423,
      "##cip": 8424,
      "##coth": 8425,
      "##cible": 8426,
      "##cats": 8427,
      "##cane": 8428,
      "##cotic": 8429,
      "##crup": 8430,
      "##cuits": 8431,
      "##corder": 8432,
      "##quries": 8433,
      "##uf": 8434,
      "##uw": 8435,
      "##uel": 8436,
      "##uum": 8437,
      "##uces": 8438,
      "##uous": 8439,
      "##uated": 8440,
      "##uges": 8441,
      "##uistic": 8442,
      "##uoro": 8443,
      "##nt": 8444,
      "##nect": 8445,
      "##nam": 8446,
      "##night": 8447,
      "##noun": 8448,
      "##nakes": 8449,
      "##nments": 8450,
      "##neath": 8451,
      "##nivorous": 8452,
      "##fall": 8453,
      "##fter": 8454,
      "##fill": 8455,
      "##fication": 8456,
      "##forts": 8457,
      "##fields": 8458,
      "##foot": 8459,
      "##bes": 8460,
      "##bon": 8461,
      "##bus": 8462,
      "##bur": 8463,
      "##bod": 8464,
      "##bates": 8465,
      "##big": 8466,
      "##bru": 8467,
      "##bri": 8468,
      "##bins": 8469,
      "##bour": 8470,
      "##bile": 8471,
      "##bium": 8472,
      "##baceous": 8473,
      "##boxes": 8474,
      "##biums": 8475,
      "##des": 8476,
      "##din": 8477,
      "##did": 8478,
      "##div": 8479,
      "##dill": 8480,
      "##dose": 8481,
      "##dome": 8482,
      "##days": 8483,
      "##dock": 8484,
      "##dibly": 8485,
      "##aer": 8486,
      "##aen": 8487,
      "##ael": 8488,
      "##aur": 8489,
      "##aim": 8490,
      "##aul": 8491,
      "##aust": 8492,
      "##ault": 8493,
      "##acular": 8494,
      "##aided": 8495,
      "##affe": 8496,
      "##yet": 8497,
      "##yte": 8498,
      "##yces": 8499,
      "##yze": 8500,
      "##man": 8501,
      "##med": 8502,
      "##mur": 8503,
      "##met": 8504,
      "##metic": 8505,
      "##mag": 8506,
      "##mosis": 8507,
      "##mities": 8508,
      "##mias": 8509,
      "##minis": 8510,
      "##pan": 8511,
      "##pro": 8512,
      "##ping": 8513,
      "##pers": 8514,
      "##port": 8515,
      "##pac": 8516,
      "##pend": 8517,
      "##pour": 8518,
      "##pie": 8519,
      "##pection": 8520,
      "##pool": 8521,
      "##packs": 8522,
      "##poises": 8523,
      "##xic": 8524,
      "##xury": 8525,
      "##xaz": 8526,
      "##xovir": 8527,
      "##kin": 8528,
      "##ked": 8529,
      "##kel": 8530,
      "##kers": 8531,
      "##kay": 8532,
      "##kind": 8533,
      "##kae": 8534,
      "##know": 8535,
      "##krats": 8536,
      "##ven": 8537,
      "##vil": 8538,
      "##via": 8539,
      "##vant": 8540,
      "##vations": 8541,
      "##voc": 8542,
      "##vail": 8543,
      "##vities": 8544,
      "##vascular": 8545,
      "##vants": 8546,
      "##vasses": 8547,
      "##viation": 8548,
      "##01": 8549,
      "##wat": 8550,
      "##what": 8551,
      "##wing": 8552,
      "##wers": 8553,
      "##want": 8554,
      "##wagen": 8555,
      "##walk": 8556,
      "##85": 8557,
      "##801": 8558,
      "##zhe": 8559,
      "##zens": 8560,
      "##zites": 8561,
      "##zene": 8562,
      "##jacks": 8563,
      "##97": 8564,
      "##ata": 8565,
      "##atite": 8566,
      "##aturated": 8567,
      "##athyroid": 8568,
      "##heet": 8569,
      "##heds": 8570,
      "##esis": 8571,
      "##esity": 8572,
      "##eskin": 8573,
      "##esheet": 8574,
      "##hates": 8575,
      "##ering": 8576,
      "##eries": 8577,
      "##erity": 8578,
      "##erated": 8579,
      "##erace": 8580,
      "##erable": 8581,
      "##erpr": 8582,
      "##erosols": 8583,
      "##erfect": 8584,
      "##eralization": 8585,
      "##erbates": 8586,
      "##inum": 8587,
      "##inally": 8588,
      "##inone": 8589,
      "##inten": 8590,
      "##inoids": 8591,
      "##inery": 8592,
      "##inii": 8593,
      "##ineralization": 8594,
      "##rey": 8595,
      "##requ": 8596,
      "##reted": 8597,
      "##revers": 8598,
      "##rectly": 8599,
      "##rews": 8600,
      "whats": 8601,
      "##ana": 8602,
      "##anct": 8603,
      "##anic": 8604,
      "##anch": 8605,
      "##anied": 8606,
      "##anuck": 8607,
      "##ankets": 8608,
      "##announ": 8609,
      "therough": 8610,
      "thema": 8611,
      "theropod": 8612,
      "##ona": 8613,
      "##onin": 8614,
      "##onim": 8615,
      "##onies": 8616,
      "##onch": 8617,
      "##ongs": 8618,
      "##onance": 8619,
      "##onha": 8620,
      "##onnect": 8621,
      "##alation": 8622,
      "##alam": 8623,
      "##alia": 8624,
      "##alding": 8625,
      "##aloma": 8626,
      "##alife": 8627,
      "anion": 8628,
      "anym": 8629,
      "anabol": 8630,
      "annal": 8631,
      "angles": 8632,
      "answ": 8633,
      "anaer": 8634,
      "##roly": 8635,
      "##rovir": 8636,
      "##roids": 8637,
      "##roten": 8638,
      "##roach": 8639,
      "##rotes": 8640,
      "##rored": 8641,
      "##rofl": 8642,
      "##robiums": 8643,
      "##ora": 8644,
      "##orial": 8645,
      "##orates": 8646,
      "##orary": 8647,
      "##orated": 8648,
      "##orie": 8649,
      "##oriation": 8650,
      "##oracic": 8651,
      "inel": 8652,
      "incre": 8653,
      "inject": 8654,
      "inges": 8655,
      "inland": 8656,
      "inlu": 8657,
      "##ede": 8658,
      "##edom": 8659,
      "##eders": 8660,
      "##edge": 8661,
      "##ener": 8662,
      "##enis": 8663,
      "##ente": 8664,
      "##enge": 8665,
      "##enna": 8666,
      "##envelop": 8667,
      "##enger": 8668,
      "##enza": 8669,
      "##enho": 8670,
      "tour": 8671,
      "toys": 8672,
      "toad": 8673,
      "tomat": 8674,
      "toothed": 8675,
      "totally": 8676,
      "todays": 8677,
      "ish": 8678,
      "isolate": 8679,
      "isolated": 8680,
      "isometric": 8681,
      "##ara": 8682,
      "##ares": 8683,
      "##arre": 8684,
      "##arction": 8685,
      "##arine": 8686,
      "##arized": 8687,
      "##arral": 8688,
      "##arls": 8689,
      "##aratus": 8690,
      "##arching": 8691,
      "##arians": 8692,
      "##arrows": 8693,
      "##ctim": 8694,
      "##ctors": 8695,
      "##ctang": 8696,
      "##ionna": 8697,
      "##icer": 8698,
      "##icon": 8699,
      "##icap": 8700,
      "##ications": 8701,
      "##icip": 8702,
      "##icular": 8703,
      "##icator": 8704,
      "##icenter": 8705,
      "##itin": 8706,
      "##iture": 8707,
      "##itution": 8708,
      "##itely": 8709,
      "##itures": 8710,
      "##itute": 8711,
      "##itability": 8712,
      "##itiy": 8713,
      "##italia": 8714,
      "##usa": 8715,
      "##usions": 8716,
      "##usable": 8717,
      "##ushes": 8718,
      "##usiast": 8719,
      "##asers": 8720,
      "##asant": 8721,
      "##asures": 8722,
      "##asitic": 8723,
      "##aswat": 8724,
      "##elve": 8725,
      "##elts": 8726,
      "##elect": 8727,
      "##ellect": 8728,
      "##elopes": 8729,
      "##elike": 8730,
      "##iser": 8731,
      "##ison": 8732,
      "##isation": 8733,
      "##isies": 8734,
      "##isia": 8735,
      "##isder": 8736,
      "##isode": 8737,
      "##isomy": 8738,
      "##iskers": 8739,
      "##lee": 8740,
      "##urment": 8741,
      "##urities": 8742,
      "##urgitation": 8743,
      "doug": 8744,
      "dozens": 8745,
      "doctors": 8746,
      "cane": 8747,
      "candle": 8748,
      "candles": 8749,
      "candid": 8750,
      "forks": 8751,
      "forcing": 8752,
      "foreskin": 8753,
      "##odil": 8754,
      "##ird": 8755,
      "##irants": 8756,
      "##irmities": 8757,
      "##ola": 8758,
      "##olid": 8759,
      "##olian": 8760,
      "##olera": 8761,
      "##oluses": 8762,
      "##olarized": 8763,
      "##iler": 8764,
      "##ilous": 8765,
      "##ilating": 8766,
      "##ilias": 8767,
      "##ilisation": 8768,
      "##osive": 8769,
      "##osene": 8770,
      "##oscient": 8771,
      "##osums": 8772,
      "##osacchar": 8773,
      "##omers": 8774,
      "##omous": 8775,
      "##ometer": 8776,
      "##omfort": 8777,
      "##ung": 8778,
      "##unk": 8779,
      "##unce": 8780,
      "##unted": 8781,
      "##unistic": 8782,
      "camp": 8783,
      "caught": 8784,
      "cavity": 8785,
      "cabins": 8786,
      "cadill": 8787,
      "cavities": 8788,
      "caroten": 8789,
      "##imer": 8790,
      "##imen": 8791,
      "##iments": 8792,
      "##imental": 8793,
      "##imped": 8794,
      "##imilation": 8795,
      "reent": 8796,
      "reop": 8797,
      "reject": 8798,
      "reind": 8799,
      "reations": 8800,
      "reward": 8801,
      "reenter": 8802,
      "requries": 8803,
      "rectang": 8804,
      "reusable": 8805,
      "beat": 8806,
      "bean": 8807,
      "began": 8808,
      "beam": 8809,
      "beans": 8810,
      "##idor": 8811,
      "##idge": 8812,
      "##idire": 8813,
      "##idia": 8814,
      "##iditary": 8815,
      "##idarians": 8816,
      "prosp": 8817,
      "proton": 8818,
      "proof": 8819,
      "prohibit": 8820,
      "prokay": 8821,
      "##eterm": 8822,
      "##ulus": 8823,
      "##ulous": 8824,
      "##ulins": 8825,
      "##ulating": 8826,
      "##ulted": 8827,
      "##ulsive": 8828,
      "##ulonim": 8829,
      "enth": 8830,
      "entr": 8831,
      "encro": 8832,
      "ensured": 8833,
      "lift": 8834,
      "likes": 8835,
      "livest": 8836,
      "##ational": 8837,
      "oral": 8838,
      "orth": 8839,
      "plus": 8840,
      "plow": 8841,
      "plum": 8842,
      "plated": 8843,
      "plots": 8844,
      "plugged": 8845,
      "cone": 8846,
      "concept": 8847,
      "confer": 8848,
      "conception": 8849,
      "conisder": 8850,
      "conidia": 8851,
      "##ota": 8852,
      "##oting": 8853,
      "##otyp": 8854,
      "##otour": 8855,
      "##otape": 8856,
      "##otropical": 8857,
      "##otland": 8858,
      "##othered": 8859,
      "##otonin": 8860,
      "##teogen": 8861,
      "##tempt": 8862,
      "##tevil": 8863,
      "users": 8864,
      "usage": 8865,
      "usual": 8866,
      "hail": 8867,
      "haban": 8868,
      "havoc": 8869,
      "onto": 8870,
      "onself": 8871,
      "wheel": 8872,
      "wheez": 8873,
      "##eate": 8874,
      "##ently": 8875,
      "##entary": 8876,
      "##entional": 8877,
      "##elling": 8878,
      "##ellents": 8879,
      "thatn": 8880,
      "##utal": 8881,
      "##utor": 8882,
      "##utic": 8883,
      "##utation": 8884,
      "stap": 8885,
      "stig": 8886,
      "stru": 8887,
      "stone": 8888,
      "stub": 8889,
      "stink": 8890,
      "stock": 8891,
      "stagn": 8892,
      "staff": 8893,
      "stunted": 8894,
      "plane": 8895,
      "maine": 8896,
      "maps": 8897,
      "maca": 8898,
      "##romed": 8899,
      "##romyces": 8900,
      "watery": 8901,
      "waterfall": 8902,
      "waterpro": 8903,
      "##alling": 8904,
      "##allic": 8905,
      "##allop": 8906,
      "##allows": 8907,
      "##vernments": 8908,
      "##thouse": 8909,
      "##thresh": 8910,
      "##thora": 8911,
      "##quite": 8912,
      "##ergillus": 8913,
      "tham": 8914,
      "thigh": 8915,
      "thym": 8916,
      "thread": 8917,
      "though": 8918,
      "thallus": 8919,
      "third": 8920,
      "##mpoph": 8921,
      "##mpathetic": 8922,
      "chap": 8923,
      "charm": 8924,
      "chains": 8925,
      "chime": 8926,
      "chord": 8927,
      "china": 8928,
      "chips": 8929,
      "chino": 8930,
      "chords": 8931,
      "choices": 8932,
      "chitin": 8933,
      "chasers": 8934,
      "cholera": 8935,
      "alan": 8936,
      "alot": 8937,
      "alum": 8938,
      "alice": 8939,
      "alask": 8940,
      "albed": 8941,
      "aliens": 8942,
      "alien": 8943,
      "alpac": 8944,
      "alzhe": 8945,
      "sexy": 8946,
      "seag": 8947,
      "sebaceous": 8948,
      "seven": 8949,
      "sewers": 8950,
      "seering": 8951,
      "searching": 8952,
      "##hers": 8953,
      "##hera": 8954,
      "##heres": 8955,
      "mock": 8956,
      "moons": 8957,
      "mohave": 8958,
      "mobile": 8959,
      "##ained": 8960,
      "##aints": 8961,
      "celles": 8962,
      "cellph": 8963,
      "celloph": 8964,
      "introdu": 8965,
      "intend": 8966,
      "intends": 8967,
      "intention": 8968,
      "intellect": 8969,
      "dear": 8970,
      "deals": 8971,
      "dement": 8972,
      "deicer": 8973,
      "spine": 8974,
      "sport": 8975,
      "spong": 8976,
      "spits": 8977,
      "spenc": 8978,
      "spells": 8979,
      "spikes": 8980,
      "sparrows": 8981,
      "spheres": 8982,
      "##umns": 8983,
      "##umnal": 8984,
      "##umfer": 8985,
      "##umerable": 8986,
      "so2": 8987,
      "soup": 8988,
      "soci": 8989,
      "soaking": 8990,
      "sought": 8991,
      "softer": 8992,
      "##gans": 8993,
      "##gance": 8994,
      "exosp": 8995,
[...]
